#version: 0.2 - Trained by `huggingface/tokenizers`
i n
t e
r o
p ro
pro te
prote in
Ġ protein
s e
a se
a t
o r
o n
r a
Ġ s
r i
e n
Ġ c
h a
r e
a c
o m
a l
t i
Ġ f
in g
Ġ d
e r
u n
h o
l i
t or
ra n
s p
at i
a in
i t
l y
l a
Ġ 1
v e
e p
l e
t ran
n a
c ha
u t
h e
y l
u b
ati ve
e d
a n
Ġ re
Ġ m
c te
tran s
Ġ p
u c
a m
7 0
k e
ut ative
ac tor
Ġ i
n e
o s
p utative
Ġf actor
p e
ri z
in e
un cha
riz ed
ra cte
uncha racte
uncharacte rized
i d
li ke
o c
e t
Ġ k
Ġs ub
a r
om ain
Ġ 2
Ġd omain
c on
o x
g en
un it
h y
t ain
tain ing
Ġ b
c k
Ġsub unit
er ase
i g
ho sp
he at
ho ck
Ġs hock
prote ase
con taining
u l
en t
o l
Ġ g
Ġ 70
hy d
te r
Ġ protease
te d
s s
Ġ h
o f
i c
t h
l on
c o
hyd ro
c ep
trans f
Ġ a
Ġ t
cep tor
e m
Ġ in
en d
or m
in d
Ġ 3
i s
p hosp
d e
transf erase
Ġre ceptor
in ase
am i
Ġi s
ami ly
d a
em b
d i
at p
r na
Ġ an
ind ing
p ha
Ġ trans
Ġk da
o g
pe ro
ep end
epend ent
d ependent
c e
Ġ e
q u
ri b
of orm
Ġd e
Ġis oform
uc le
al pha
c y
y n
ati on
ti on
ri p
l o
Ġk inase
ig h
Ġ se
Ġ ac
Ġ n
oc h
Ġd na
m e
d na
c rip
et a
om p
Ġm emb
o ly
c h
pero ne
ep ti
t ase
h sp
g l
a p
cha perone
Ġ 4
gen ase
Ġs yn
os om
yl transferase
u m
Ġdna k
i a
Ġc ha
Ġ la
e c
b inding
Ġf amily
ha te
t y
ti v
m in
s t
crip tion
Ġ v
p re
0 0
b ox
o p
or e
on e
la r
at or
Ġh om
Ġ (
a te
omp le
a d
se r
Ġ alpha
osom al
phosp hate
Ġ ne
omple x
Ġp oly
t in
ti c
li g
i m
s in
tran sp
Ġ rib
h i
1 7
a s
Ġ l
th ase
ter min
Ġmemb er
Ġsyn thase
a ss
v i
or f
termin al
ran e
ol og
ub i
cte d
Ġ 5
m a
Ġtrans cription
u p
ubi qu
Ġhom olog
d uc
o t
ia ted
Ġi i
oc iated
Ġac id
transp or
la ss
hydro genase
ro p
g ly
on d
o se
Ġb eta
et h
Ġ 6
an t
l l
Ġc lass
b i
Ġc omplex
c dna
Ġcha in
Ġan ti
l ase
la ted
o d
ri al
li c
Ġc ore
u s
it och
itoch ond
yl ase
ro me
itochond rial
Ġrib osomal
g ative
Ġp hosp
Ġde hydrogenase
ne gative
g e
co protein
at ase
Ġne f
Ġan d
it y
lon e
s or
i f
epti de
ass ociated
i on
m al
Ġanti gen
ar box
id ase
Ġc lone
f amily
h c
ri on
Ġ transpor
t och
Ġre g
vi rion
it in
Ġ of
u r
toch rome
duc tase
1 0
ing er
Ġg ly
di cted
pre dicted
om e
ty pe
m hc
hydro lase
epti d
im i
n ucle
f ec
l in
Ġt o
Ġc y
in c
Ġf inger
a b
ubiqu itin
ul ator
Ġre ductase
gl ut
ac et
li p
2 0
a v
a ri
z inc
5 0
t ing
r in
pe at
am in
id e
Ġc on
l j
1 3
h atase
re lated
imi lar
Ġse c
tiv ity
Ġ ox
gl uc
0 9
phosp ho
Ġtranspor ter
cy tochrome
1 2
Ġm itochondrial
s te
Ġ rna
ul in
if ic
Ġin fec
Ġinfec tivity
Ġn ucle
g c
Ġre peat
Ġt y
Ġgly coprotein
is t
Ġ lig
Ġs imilar
1 4
6 0
on ine
b eta
Ġ he
Ġb inding
t a
Ġmemb rane
Ġreg ulator
av y
h t
i b
4 0
o ti
m eth
en ce
ox in
Ġs p
Ġ 7
m ic
m erase
1 1
i um
at ing
ra c
qu ence
na d
Ġse quence
ro s
Ġ r
ar y
ra l
Ġpoly merase
ox y
Ġty pe
th re
s i
Ġ w
sp ec
Ġ hydrolase
s id
mal l
1 5
l oc
Ġf lj
z y
eptid ase
Ġv ari
acet yl
Ġsec re
la te
spec ific
ap sid
zy me
t p
ac tiv
i p
s ol
t he
m ent
thre onine
om erase
ser ine
ri ch
lon g
Ġs up
Ġe x
c arbox
co a
m y
e s
m emb
Ġ 8
Ġphosp hatase
memb rane
hydro x
la s
ne l
n nel
os yltransferase
ac yl
1 8
Ġcha nnel
2 3
Ġd i
on ucle
ul l
Ġsecre ted
en zyme
hi bi
in te
ar ri
ig k
arri er
Ġin ser
ro n
Ġinser t
ce ll
Ġf ull
09 0
) -
hibi tor
am ma
Ġvari ant
4 50
er family
1 6
c al
a ted
ra te
Ġ x
u k
m p
t o
Ġsup erfamily
e og
atp ase
x in
o protein
t rop
Ġg ro
ul f
t ra
t os
ro m
p eptide
Ġ 9
Ġin hibitor
r y
Ġ ly
Ġcon taining
o gen
0 3
Ġ ubiquitin
r u
ab le
Ġsyn the
1 9
lig ht
rac ting
Ġlig ase
as c
i ti
Ġc o
he avy
t rna
Ġis omerase
) ,
u la
le d
Ġh igh
i l
oxy genase
Ġse r
s mall
g p
igh v
Ġsynthe tase
igh d
igh j
od or
Ġregulator y
Ġc arrier
Ġp eptide
trans cription
ep sin
Ġhigh ly
phosp h
le c
p oly
Ġox idase
i i
or in
Ġser ine
odor ant
ig l
p h
amin o
s se
or ed
lic ase
Ġ o
2 6
Ġm rna
Ġpoly protein
ad en
ub le
Ġ pro
ti d
w th
gly ce
hydrox y
v er
m o
2 2
ac tin
Ġc h
e ll
gen e
1 00
gly c
c apsid
Ġv p
e x
3 0
u lar
c a
p a
lo b
meth yltransferase
ro l
Ġc arbox
Ġsub family
iti ation
cy te
d p
u te
l ation
in os
s j
at hi
Ġin itiation
Ġ transferase
in one
on o
c ium
th i
trans membrane
2 4
ch gc
sj chgc
Ġ1 0
n al
ist one
ve lo
ly l
glut am
r uc
osom e
et al
Ġm o
Ġ lip
inte racting
nad h
3 9
athi one
Ġc ell
ti ve
ros ine
Ġ enzyme
omp on
o tic
ompon ent
pero x
Ġnucle ar
u an
t ub
Ġg amma
c ar
ig nal
Ġg tp
p y
ind uc
a g
n on
in ter
at ri
u ra
f i
ste ine
os yl
Ġ [
Ġ atpase
long ation
os in
en velo
s o
nucle ar
ve d
sol uble
envelo pe
k y
re cted
onucle ase
Ġtrans crip
al i
re g
i r
0 4
di rected
at h
Ġhe licase
0 5
ter ase
oc y
Ġ at
prote as
Ġcy c
Ġac tiv
oti de
f la
ruc t
etal lo
cy c
proteas ome
' -
meth yl
p ot
en e
Ġ q
ubiqu inone
ul ose
o lar
2 8
2 7
k ine
gly coprotein
f e
Ġtrans lation
m itochondrial
Ġ u
Ġm oti
er y
f ac
k inase
de hyd
Ġde carbox
Ġsp ore
y late
f er
Ġg l
0 6
g al
v ary
trop epsin
c in
re tropepsin
orm one
ra b
ar g
u le
0 7
it ol
ali vary
Ġc dna
Ġgro wth
h istone
at in
- -
Ġmoti f
ati d
0 8
Ġc omponent
glut athione
activ ated
m ul
ot oxin
gluc os
3 5
ary otic
m ed
uk aryotic
2 5
ho l
Ġa d
la n
ra s
Ġ al
Ġphosp ho
s ulf
m b
m it
c omplex
Ġ end
lo rop
ur fac
he x
b p
an n
d in
sp on
acetyl m
rib osomal
igk v
3 3
s h
2 1
ri s
igk j
acetylm ura
an d
Ġhe avy
Ġ z
Ġ1 1
am ine
Ġgtp ase
Ġh ormone
urfac e
u g
r ing
le uc
Ġdecarbox ylase
e ukaryotic
ored uc
l ta
ne u
oreduc tase
con otoxin
an ce
inos itol
acetylmura mic
g i
en s
id oreductase
o box
Ġin te
p eptid
m ac
ra in
di um
dehyd e
te n
car b
un c
it h
6 8
l u
he m
Ġ zinc
t op
ha n
ery th
ass ium
c d
gen ome
3 4
um an
or t
sol ute
n f
Ġox idoreductase
i led
t on
t b
ty rosine
a sp
d o
Ġ ti
j or
sp hosp
hyd r
s ist
pre ss
activ ating
2 9
d y
Ġh uman
lic ing
in in
phosph atid
Ġs alivary
w d
leuc ine
peptid yl
t r
y p
at ty
co il
Ġ1 2
ser ved
ib le
ula ris
ry p
b ate
sist ance
um or
u ral
phosp hatase
ri c
Ġp utative
Ġnucle otide
la st
s ti
ono oxygenase
e longation
tub ulin
gal ac
Ġs urface
op sin
Ġtranscrip t
er in
sse d
uan ine
ar t
gluc ose
Ġreg ion
t ri
cha n
op eptidase
le uk
Ġm eth
Ġpoly peptide
le t
ly s
Ġm y
Ġb rain
pe c
or bate
Ġ lo
0 1
re d
pre ssed
Ġc ra
asc ic
o yl
Ġb i
d u
ma jor
v ari
eryth ro
Ġ1 3
p ho
sphosp hate
se n
es terase
Ġb ox
Ġgro up
r p
cal cium
n it
Ġtrans loc
Ġc al
Ġa ss
z gc
asc orbate
m rna
Ġii i
am p
ac a
5 5
ad p
3 7
ru v
er m
at al
us ion
Ġp e
Ġw ith
s c
pro lyl
4 9
m et
li ty
r ho
Ġ amino
mp ho
arg in
Ġd is
mb ly
6 9
Ġac et
Ġs ignal
so dium
Ġf ascic
s ic
phosphatid yl
ep im
epim erase
Ġex chan
ru g
ruct ural
ut ase
Ġre sistance
3 2
og lob
at a
mac aca
Ġfascic ularis
c l
Ġp eptidase
or ib
Ġ1 4
5 9
Ġ like
Ġcarbox ylase
Ġly ase
se c
Ġs mall
Ġass ociated
Ġf is
tid rug
Ġa sse
m ann
Ġasse mbly
ruv ate
cy steine
Ġmo lec
g amma
p p
te tra
Ġ1 20
Ġg p
os ine
bi lity
Ġhom e
las mic
lip ase
Ġtranspor t
mul tidrug
lec tin
Ġm onooxygenase
lin k
argin ine
Ġrib onucle
Ġm etallo
Ġlig ht
os ide
erythro cyte
re ceptor
r r
p o
induc ible
u dp
mpho cyte
4 4
Ġcon served
Ġmeth yltransferase
ac u
igl v
s is
ot rop
ig lj
b able
Ġ y
Ġ j
at ur
es is
l ac
leuk in
a ge
my b
ad s
v is
3 8
acu olar
u ron
oc apsid
nucle ocapsid
pro bable
Ġlo v
i ator
Ġre f
z ation
Ġref se
Ġrefse q
hydrox ylase
0 2
al in
Ġn on
ma g
ac h
Ġribonucle oprotein
hydr atase
press or
inte g
3 6
m on
ri d
ro id
Ġs ap
Ġ gene
inter leukin
o id
ta ge
an in
Ġactiv ator
od ulin
Ġl oc
ti li
( +
Ġ1 7
ol tage
transf er
st ructural
pot assium
di hydro
cell ular
5 8
Ġe f
Ġn m
ky rin
c ap
Ġs pec
py ruvate
m un
c le
5 6
si tive
Ġtransloc ase
med iator
fla v
Ġ am
co peptide
atri copeptide
na p
mic ro
tic le
si ve
Ġgly c
Ġcal cium
Ġe le
hex on
o us
i ens
Ġm d
ste m
c c
h ome
unc tion
g tp
my osin
on ate
n ac
y tic
carbox y
glyce rol
Ġch lorop
Ġgl ut
c er
f ib
n t
Ġa b
m gc
f orm
Ġhom o
atal ytic
glutam ate
Ġsap iens
j ug
ce ss
up led
Ġly mphocyte
phosphatidyl inositol
Ġv ii
c hol
om al
las ma
c ol
lo w
g n
spon sive
s uc
co iled
las tic
Ġp y
Ġ1 6
u lated
pot he
fe ron
glut inin
cyc lin
transp os
og l
Ġphosp h
Ġprotein ase
ly ase
Ġde lta
4 8
s ignal
atur ase
Ġs t
Ġ1 5
se t
h erin
pothe tic
l p
tili zation
Ġspec ific
4 7
p hy
du f
rib ulose
Ġele ment
Ġu tilization
ro x
y stem
5 3
Ġe s
Ġla r
f ol
vari able
vis ion
v acuolar
g ro
bi sphosphate
Ġcyc lase
Ġp re
Ġch rom
a u
re p
s ion
s yn
Ġdi vision
atri x
5 7
an ti
v en
chol ine
hy pothetic
l en
s m
ke to
h om
f l
mag glutinin
cha in
p ent
Ġmolec ule
he magglutinin
ored oxin
co at
acetyl glucos
o transferase
i tion
r ky
Ġ ula
jug ating
p or
Ġf orm
0 13
Ġpe rox
s a
mit ogen
oc alin
s aturase
Ġ1 8
t ach
Ġ ep
thi oredoxin
lys ine
c p
galac tos
l ine
in s
ro genase
ad herin
sp licing
am inase
Ġc atalytic
omple ment
Ġlar ge
Ġ hydro
ogen esis
ol gi
t ol
asp art
Ġhome obox
ryp sin
Ġs ulf
p le
s l
tach ment
m etallo
al dehyde
ath epsin
glyc osyltransferase
p an
en han
n p
a a
g er
s y
Ġ or
co gn
ch rom
induc ed
Ġchlorop lastic
m utase
da p
4 6
ac id
i li
m odulin
perox ide
Ġi x
Ġti ck
g ated
y lyl
0 23
he sion
ve sic
b o
Ġ proteasome
Ġt ri
he li
en yl
Ġgl uc
amin opeptidase
cogn ition
tid ine
li m
g uanine
inter feron
e l
red oxin
on in
pa ir
con jugating
tra cellular
t umor
Ġre lated
Ġcy p
Ġlip ocalin
Ġexchan ge
ros is
Ġac tin
di esterase
c g
spon se
a f
transpor ting
g an
n s
Ġs or
c om
x yl
7 8
f atty
na n
met hi
s u
Ġ lectin
la gen
lip id
Ġtrans membrane
Ġcy tochrome
g lob
Ġ rab
Ġad en
Ġ1 9
ol ase
h l
z p
c u
f o
5 1
on ic
Ġ ha
Ġre pair
Ġ transpos
t ose
de lta
ar yl
te sti
Ġ2 5
re sponsive
ati bility
omp atibility
r b
d c
ch lorop
Ġ on
otrop ic
Ġc as
un d
Ġa p
Ġex pressed
Ġsor ting
al l
3 1
Ġvii i
glyce rate
00 1
7 9
Ġcy steine
carb am
w rky
od omain
ver se
k f
ocy te
it inase
ra d
o ten
hypothetic al
Ġdis mutase
a k
is omerase
amin yltransferase
methi onine
re tin
m id
m ads
4 5
g f
p r
c an
c rosis
top lasmic
f actor
Ġp lasma
n sor
Ġcarbox yl
Ġinte racting
Ġ2 6
cal modulin
Ġdi oxygenase
g h
Ġs h
kf zp
co enzyme
a st
gro wth
acet yltransferase
c t
an kyrin
home obox
Ġf atty
us cle
Ġne crosis
Ġp ar
v p
2 00
z o
Ġe longation
c athepsin
he mo
vesic le
i te
p eptidase
u ro
Ġty rosine
ra m
l d
t rin
d op
Ġes ter
Ġ2 0
unction al
Ġd kfzp
Ġ long
set te
oglob in
Ġcas sette
Ġde saturase
a rate
aspart ate
Ġpro ton
protein ase
Ġtranscrip tase
p er
Ġ atp
Ġ heat
Ġ opsin
enhan cer
ur in
yn the
t hy
Ġre sponse
ste rol
b in
ator y
4 1
Ġacet yl
ro gen
Ġac yl
eth yl
Ġcha perone
c ase
uc in
te tr
sec re
ox o
Ġvari able
at tachment
ral dehyde
ins ulin
Ġpy ro
f ruct
c omplement
rib onuclease
con e
Ġt umor
o yltransferase
u re
sen sitive
su peroxide
phosph orib
Ġsp licing
os idase
Ġsub complex
n er
Ġ rich
am ide
hemo kine
c ent
gluc an
qu ap
quap orin
carboxy lic
tub ule
de oxy
tol l
ol factor
olfactor y
5 2
d omain
tic ul
Ġlig and
testi s
o tin
ra g
h is
al an
9 0
b ut
integ rin
de hydrogenase
as ic
k er
or ylase
glyce raldehyde
g ap
p in
tetr atricopeptide
reg ulator
f usion
rib osyl
Ġr p
kine sin
ge l
nsor y
m i
transpor ter
te ro
Ġa dap
5 4
Ġf am
re ss
cess ing
si lon
ylyl transferase
l cone
m ip
Ġc is
reg ulated
la v
Ġbi os
ose nsory
Ġbios ynthe
en ol
os t
b last
transf orm
cha lcone
Ġi m
6 6
co upled
hem osensory
Ġperox idase
Ġad hesion
it rogenase
unit z
nucle oprotein
it rate
al mit
l rr
ste roid
ist oc
d en
istoc ompatibility
l ing
Ġre cognition
dna j
c arrier
Ġg uanine
Ġin ter
cy p
au xin
h d
de f
perox idase
rid ine
r t
c ore
Ġw nt
Ġphosp hate
v oltage
00 2
st in
yp eptidase
Ġde aminase
fib ro
8 0
suc cin
d is
link ing
neu ro
i ll
Ġ2 2
ut o
Ġq fla
k da
glyc ine
n in
Ġ eth
col lagen
om y
av age
7 6
tos is
h yl
l or
sulf ur
Ġamino transferase
din itrogenase
te l
sp erm
vi r
tor y
u ter
Ġp orin
fruct ose
ne in
ul ation
h ep
tos ystem
ac cha
co hol
Ġi mp
4 3
Ġ hydratase
acet ylase
perox is
Ġeth erase
ex pressed
em p
link ed
phospho lipase
oglob ulin
hl h
sy nap
d olase
acyl glycerol
Ġacet yltransferase
mon ia
Ġp ot
n ic
Ġ ar
Ġbiosynthe sis
la min
Ġi v
Ġpar ticle
b s
de s
op hi
e st
Ġde acetylase
Ġ transfer
Ġtranscription al
Ġco iled
Ġpot assium
(+ )
v al
mun oglobulin
re peat
f unctional
fo late
p i
ac k
fec tor
n r
aden osyl
mal tose
op en
top orin
Ġmy osin
fol d
tetra hydro
a quaporin
rib osome
ri de
en ti
ne xin
f uc
Ġ aminopeptidase
Ġr ho
lor ide
c hemosensory
Ġc l
Ġ2 8
co p
ge ran
yp i
Ġm od
Ġh s
glutam yl
mal toporin
ac ypi
ia a
pro line
4 2
re ductase
fer enti
g a
glutam ine
Ġo lig
Ġlip ase
but y
cy tos
Ġdi phosphate
Ġin duc
Ġt he
an gi
Ġsec a
7 7
Ġr ut
Ġde hydratase
ogl uc
a x
g y
nad p
alan ine
s imilar
ch or
o lig
Ġm ic
poly protein
lic ation
Ġ thi
s terase
Ġsignal ing
u ridine
ri ty
m ine
aden osine
Ġhs lu
Ġef fector
co gene
vir us
Ġg olgi
(+ )-
le ss
ribosyl ation
t c
Ġc ar
or k
ri ved
ome ric
aden ylate
pho tosystem
r en
n o
r g
i lin
Ġdomain s
hem oglobin
op tosis
ch itinase
ver y
ig ma
sulf ate
Ġix o
o hydrolase
re verse
Ġactiv ating
Ġmy b
ra p
bi al
he ad
la rity
rib ose
ros omal
Ġc ation
Ġ2 1
Ġep silon
- [
Ġphospho diesterase
Ġv i
r m
ferenti ation
en sin
ph enyl
Ġm uscle
w a
Ġly s
ca sp
peptidyl prolyl
8 9
Ġ arginine
id in
m atrix
om a
almit oyltransferase
u e
d rome
Ġsyn drome
z ip
as ing
reg ion
g uan
Ġ +
m n
ogluc an
z ing
Ġ enhancer
ti al
hyl l
nucle olar
Ġh istocompatibility
micro bial
d opsin
geran yl
Ġexchan ger
o ro
sor ting
Ġsp li
n ot
activ ator
pha n
Ġi gl
hy p
en oyl
s up
s f
pe ri
Ġal dolase
accha ride
o lic
Ġ ras
ke l
pro st
mann ose
Ġtranspos on
Ġinte rac
p late
8 6
he tero
e re
tetra sp
t oc
ulf ide
Ġmetallo protease
Ġv oltage
ti co
Ġm ul
Ġlip id
rep licase
Ġd if
trans lation
Ġsub st
r h
cyc lic
d ed
Ġii ia
Ġc d
ri mid
yl ation
Ġmetallo proteinase
of actor
tetrasp anin
c he
Ġc hemokine
ven om
oxo acyl
b ran
f lu
cy an
ac yltransferase
og ly
Ġend onuclease
ha lo
Ġox ide
m ap
kel ch
Ġs ula
le asing
Ġh istone
b l
glucos idase
ati c
Ġi ron
ab c
ho x
Ġcyc le
is o
ve l
Ġi on
Ġhomolog y
um p
ap pa
py rimid
li fer
ethyl ene
p at
Ġsubst rate
Ġm e
r f
to kine
Ġimp ort
pro cessing
Ġl in
m an
Ġacid ic
ll in
gluc uron
Ġc ofactor
Ġse n
Ġac yltransferase
tetrahydro folate
d z
rop eptide
ogl ut
3 00
b en
Ġm atrix
flav on
de rived
Ġixo des
c ur
Ġin ner
ill er
oglut arate
Ġm ucin
emb ry
lan d
Ġglut am
inos iti
m ot
li ch
trans loc
por tin
Ġ le
ta xin
e f
g ic
c or
6 7
Ġ3 9
lich yl
id a
Ġor gan
- (
ck ing
f fi
dy nein
nad ph
do lichyl
oten sin
ffi cking
b tb
t sa
Ġsup pressor
al k
t x
cal p
inositi de
ox ide
oti d
ork head
ly so
Ġco enzyme
nic otin
casp ase
l f
6 1
h in
on yl
Ġ leucine
us ter
mi aldehyde
Ġs m
Ġz ip
dop a
al a
Ġ2 4
Ġde ath
8 8
st rin
t rypsin
c lass
la mine
glob ulin
k in
Ġ prote
gene ous
xyl ulose
w i
heli x
ug ar
1 20
si al
Ġacetyl choline
Ġne xin
ia te
se p
ar d
lac t
Ġglut athione
b re
Ġ4 0
Ġ2 3
and id
ain te
Ġox y
c r
Ġf usion
andid ate
Ġm on
lo op
Ġsp erm
l r
ag ing
di peptidyl
acetylglucos aminyltransferase
m s
i al
Ġf ac
in t
Ġspli ce
hydr ase
Ġ er
Ġs y
tri ose
angi otensin
a z
w n
Ġ2 7
ter p
nan ce
f y
op o
o uter
Ġ3 5
tic ular
Ġspecific ity
Ġfac ili
Ġphospho lipase
Ġt oxin
chrom osome
eth ylase
ack aging
s qu
or ph
med iate
Ġs ol
ne c
Ġtrans duc
Ġcy toplasmic
p ackaging
Ġbi ogenesis
ainte nance
Ġm aintenance
Ġinte g
] -
Ġre ticul
Ġloc us
sh ort
t ryp
Ġc u
on a
pha gy
c omponent
Ġf ra
di p
Ġs o
Ġm ads
Ġk unitz
ion otropic
his tidine
m ono
00 6
rho dopsin
em ethylase
oc i
cy st
fi er
Ġp ore
lip oprotein
anti gen
Ġdif ferentiation
s alivary
nucle oside
c is
ne s
galac t
ec tin
Ġg land
nr np
ad ing
hetero geneous
ag lan
aglan din
di phospho
Ġw d
Ġq tsa
p ar
Ġc le
ne ura
k inin
p almitoyltransferase
Ġc ol
Ġb asic
f orkhead
t w
transform ing
imi larity
i ent
s d
s ub
carbox ylate
triose phosphate
re st
am ylase
uto phagy
9 8
g th
chlorop hyll
qu inone
terp ene
Ġlip oprotein
d h
Ġcy tos
Ġim munoglobulin
Ġreticul um
rin ogen
in ol
od y
Ġan hydrase
Ġco upled
heli al
d l
ic al
9 6
h igh
ro se
t rip
op lasmic
Ġend o
vari ant
pent atricopeptide
succin ate
1 60
Ġmo di
cur sor
g ul
Ġ3 0
enol pyruvate
re leasing
my e
Ġc apsid
ed d
gene ral
carbam oyl
h ing
oc arbox
t rol
def ensin
7 3
f inger
er gen
ap o
Ġrib onuclease
m ia
Ġal l
gly co
Ġso dium
ogly can
transcription al
Ġglutam ate
g olgi
Ġolig omeric
du al
Ġmic ro
l k
cin na
Ġcl uster
a e
hex osyltransferase
o virus
Ġp ump
ca ro
ri tin
Ġf or
ck strin
Ġcle avage
b hlh
7 5
s al
end o
syn taxin
Ġfra me
a rag
Ġanti microbial
ox al
ros ophi
rosophi la
micro tubule
ost atin
en v
Ġg lob
c re
f in
Ġre ading
t re
mal ate
ath rin
neura min
flu x
Ġ open
ha l
Ġp h
Ġsecre tory
st al
70 0
ke let
Ġb tb
han d
Ġcyc lo
olig os
ca f
otrop in
chlorop last
Ġsh ort
kelet al
suc rose
g in
pan sin
op orin
prost aglandin
Ġs imilarity
t oxin
Ġ2 9
Ġon cogene
acetylglucos amine
gul onate
um in
c adherin
ver tase
Ġc andidate
ro us
ens ity
toc adherin
glucuron osyltransferase
g li
g dp
Ġc g
Ġan chor
Ġcy tokine
Ġ lim
len gth
ex pansin
Ġglyc ine
Ġg uan
fibro blast
z n
Ġr ing
Ġam id
ar f
carb onic
phospho gluc
Ġphospho protein
phospho enolpyruvate
fer ritin
pro p
thi one
an th
pha ge
7 4
sulf otransferase
Ġan kyrin
Ġsen sitive
Ġnucle olar
cy toplasmic
an nexin
Ġt a
pp er
8 5
6 2
u d
Ġd emethylase
carbox ypeptidase
8 4
o ac
Ġef flux
7 2
Ġf ib
b r
Ġ li
de hydro
ry stal
b f
Ġs ti
ec dy
ser pin
cyc lo
1 10
Ġt rna
Ġ vesicle
Ġp ata
ul ating
neu ropeptide
ti de
Ġs pe
peroxis omal
con served
Ġne uron
han o
Ġmd tc
peri od
r x
mac ro
press ion
i redoxin
g ram
ra di
ocy st
im mun
Ġula f
phosphorib ulose
v a
tb c
6 5
integ r
Ġdis ulfide
carbamoyl phosphate
mo de
na te
dihydro oro
end opeptidase
pro tocadherin
ul lin
Ġmolec ular
e if
Ġmd tb
c ch
Ġ6 0
ubiquitin yl
Ġphosph orylase
glob in
k iller
Ġzip per
Ġ ro
sp ond
n k
di phosphate
Ġan ion
phospho diesterase
atal ase
com bin
Ġf lu
ter in
case in
9 9
Ġne uro
gen in
Ġn s
oly b
keto acyl
pent on
k iaa
ve length
di acylglycerol
est rogen
Ġadap tor
phenyl alanine
calp ain
b cl
gl c
hydroxy steroid
po z
o b
al cohol
ex tracellular
thione in
p las
Ġam monia
secre ted
Ġall ergen
p f
7 1
ep id
ut ral
Ġ4 1
Ġoxy genase
6 4
a utophagy
rr m
6 3
ex ocyst
oligos accharide
m f
Ġ9 0
c atalase
se x
om er
ti te
ox oglutarate
tra fficking
lac case
Ġmicro tubule
hano lamine
th rom
03 3
ri k
Ġm ann
galactos aminyltransferase
duc t
on ad
oc or
mann osidase
sh ut
rystal lin
+ -
m at
of f
mul ti
s urface
fuc osyltransferase
g u
Ġr t
mode ling
shut off
Ġp er
ph d
nit rous
se ase
aden ylation
i red
Ġc ap
Ġfacili t
combin ation
uc cin
ubiqu inol
Ġphosph orib
Ġadap ter
t nf
duc in
phosph orylase
omy osin
no vel
phospho inositide
Ġmd ta
Ġfacilit ator
Ġp oten
otid ase
Ġn up
phospho lipid
to phan
low er
ben zo
t ot
Ġap optosis
Ġinter mediate
Ġf lav
Ġglyc osyltransferase
er f
Ġpoten tial
yl ating
ab a
c ho
sup pressor
t ro
ac t
asp arag
ox idase
u ke
uke mia
nucle otide
glut aryl
Ġco at
t m
Ġ na
se mialdehyde
Ġco activator
s k
s na
Ġ rad
Ġs te
p c
unc ated
op eptide
ph ase
d b
p ing
Ġ hypothetical
ar tite
Ġacid s
spond in
o esterase
osom es
Ġchrom osomes
m g
hydroxy acyl
Ġa g
Ġpre cursor
f ar
em al
Ġspe fl
or n
Ġco transporter
Ġs c
ocy anin
arg et
r cg
p ol
Ġ hydroxylase
Ġc an
Ġ amp
Ġp ho
phospho glycerate
trop in
cent rosomal
z f
Ġchrom atin
pyrimid ine
Ġm al
Ġ3 2
hi lin
Ġs ystem
nicotin ic
sl c
h la
dihydrooro tase
Ġd y
Ġz n
oglucan ase
ple ckstrin
gen esis
Ġc a
do uble
v in
Ġtrans carbam
cap ping
Ġpre pro
Ġtranscarbam ylase
ar ch
m onooxygenase
r ation
Ġw all
st ro
Ġv ery
Ġpro lifer
oci ation
sp hing
di oxygenase
Ġaden ylyltransferase
h orin
Ġ odorant
ar ly
Ġ3 8
me lan
ry late
ur ine
glucos amine
metallo thionein
os a
lo genin
ch loride
o le
r n
glc nac
trop onin
d r
carb on
trip artite
s n
pro pan
Ġm or
Ġn it
Ġlin ker
Ġ envelope
fec tive
b a
c ate
Ġj unction
e g
hyp ox
Ġal cohol
Ġ embry
Ġphosph atid
Ġcu ticle
th er
po int
Ġcyc lin
ocarbox ylate
Ġh sl
lo id
methyl glutaryl
tryp tophan
o ic
Ġpoly adenylation
sial yltransferase
or y
re ticul
tion al
in hibitor
g rad
st atory
Ġd ependent
Ġre p
Ġp ig
00 0
Ġst ress
p he
t ha
v ol
Ġt lp
apo lipoprotein
Ġhsl v
ton ase
b ase
Ġper me
repeat s
a na
flav in
ac tive
Ġre c
cd c
trans ient
halo se
Ġm ono
ge o
guan ylate
am monia
03 30
diphospho oligosaccharide
ke tide
gel lar
m t
ra f
rep lication
Ġcarbox ypeptidase
am yl
hyd rate
Ġl ac
Ġrt fl
up f
9 4
Ġt fi
Ġthi oesterase
f ruc
m r
im portin
Ġre pressor
Ġmodi fier
c la
Ġd o
phospho transferase
k d
Ġz eta
Ġp r
mo a
lys osomal
nit ine
+ /
s tran
glucan ase
d ensity
Ġt rypsin
cytos olic
Ġglob in
se u
Ġle ukemia
Ġc or
mul ating
ker atin
te ne
he sin
o kinase
p lasma
Ġ4 3
ho genesis
Ġ4 2
Ġcon trol
1 12
p s
or gan
Ġm u
nit rogenase
Ġgluc ose
b zip
Ġab c
s nf
coat omer
na min
end oglucanase
metallo endopeptidase
peroxis ome
a redoxin
aden ovirus
cl athrin
seu do
9 3
s one
Ġhe li
lar ge
trop omyosin
Ġ3 6
adenosyl methionine
cu ticular
d s
d yn
Ġk appa
di l
cyan ide
fruc to
galactos idase
Ġrep lication
Ġf i
oc itrate
Ġq moa
c amp
nucle oporin
ot helial
Ġex p
Ġre verse
Ġti m
Ġm ed
che d
Ġcan cer
cal c
Ġta il
p dz
w e
Ġs igma
Ġch loride
Ġon ly
b rom
Ġ3 3
Ġw a
ol in
s v
u f
Ġm utase
neu ron
gal ectin
le sterase
nec tin
tr uncated
Ġs n
Ġsulf otransferase
s om
ig m
di ss
Ġheli x
8 3
Ġ4 5
k s
r c
sp i
end oplasmic
gp i
hydro gen
Ġmod ulator
organ ic
1 14
m olyb
Ġs ite
b asic
Ġa sp
cy tidine
to ene
' ,
b one
Ġt opo
Ġm i
Ġtopo isomerase
Ġm a
Ġb ody
hi b
Ġnucle oside
s igma
ome ga
py r
let hal
ogen ic
amino buty
fla gellar
dy namin
integr ator
neuramin idase
plate let
c itrate
Ġm it
Ġinhibitor y
4 00
bo und
phosphogluc onate
f ic
g t
Ġp at
b rain
Ġ up
co pper
Ġs cap
ri te
cle avage
hom ocy
Ġi a
Ġ3 1
sol in
gu statory
Ġflav oprotein
Ġdi ver
Ġscap ularis
ce ram
base plate
b ac
Ġprotein s
ed ge
gluc osyltransferase
Ġex pression
p t
Ġw edge
2 11
Ġm et
Ġdecarbox ylating
Ġmor pho
1 13
Ġc op
Ġre modeling
Ġphosphorib osyltransferase
n bs
ut p
ch itin
1 70
k unitz
m ucin
Ġ en
ep tin
Ġ3 4
tp r
Ġtransduc er
r rna
Ġf e
hydroxy benzo
Ġsol ute
ith ine
cho le
zo le
mot ing
b y
c lo
al ly
trin sic
st re
Ġe gf
s ity
hy al
orib onuclease
phy toene
tre halose
os te
vi tel
9 5
my c
ss ue
Ġcarbox y
c ing
Ġw il
glyc an
Ġdiver sity
m uscle
ad in
Ġ5 2
phy rinogen
ecdy sone
h s
u din
mann osyltransferase
he ct
sc ent
Ġpyro phosphate
Ġinterac tor
re sistance
Ġre duc
m orph
er mal
Ġq tra
sep tin
vitel logenin
9 2
la kin
Ġa dp
Ġchrom osome
9 7
se len
amin yl
cess ory
thy roid
oxy sterol
Ġdi sease
form ing
ly sin
Ġtfi id
c rystallin
flavon one
Ġsy nap
fin ity
n at
s ugar
um arate
pec t
d j
Ġ3 7
min al
Ġst ructural
glut aredoxin
ine urin
Ġw e
100 12
Ġsignal osome
pe l
Ġactiv ated
x y
Ġp o
uccin ate
pero nin
ag min
tot agmin
o und
ant ho
tw o
Ġmo de
flavon ol
i ron
Ġin trinsic
Ġpyro phosphatase
lower ing
al ine
Ġula e
Ġc en
Ġ5 5
gel solin
c hemokine
e lin
t u
tel omerase
galact uron
4 59
Ġr nf
f mn
an k
Ġre tin
Ġtrans aminase
phospho sulfate
Ġdi phosphatase
pa ired
perox iredoxin
b x
c s
Ġm us
Ġa u
is ocitrate
Ġex tracellular
Ġbi sphosphate
0 14
Ġc he
Ġex onuclease
ii i
Ġlys osomal
pe t
d m
t d
lyso zyme
gram med
8 1
Ġ1 00
Ġre sponsive
nucle otidase
Ġend opeptidase
ten oid
rag ment
bran d
le brand
Ġwil lebrand
p ment
ke y
Ġexp ort
Ġ5 0
Ġmul ti
Ġv ir
18 5
secre tory
g onad
n od
Ġ un
Ġ tetratricopeptide
ocor tico
stre am
g m
imi l
8 2
l c
in yl
Ġk iaa
rome re
Ġinduc ible
galacturon ase
v as
imil atory
in ic
ck point
alk aline
Ġphosphatid yl
Ġpig ment
oc al
w ard
pro moting
i z
Ġd ip
Ġv acuolar
Ġinduc ed
m eta
se minal
os is
Ġ te
rate ly
Ġmo bility
pro v
re b
phospho fructo
cc t
b umin
ap optosis
bi functional
ure tic
_ _
ge f
Ġhome odomain
8 7
v l
poly morph
propan e
reticul on
aminobuty ric
polymorph ic
i et
n u
Ġn t
amin idase
cc r
Ġperme ase
Ġmode rately
s us
Ġc cch
ten sin
s ar
Ġ /
ac tion
Ġf ragment
pe rip
rom one
Ġhydro carbon
o th
la ment
ver ting
Ġflu id
0 20
et s
cla udin
a dip
c f
ox ic
ing le
hy mot
form yl
bo spondin
b e
Ġcy tid
ocy clo
hypox ia
u al
tor age
Ġa x
um o
vi ral
acetyl galactosaminyltransferase
throm bospondin
Ġ hydroxy
re c
he licase
Ġdna j
hymot rypsin
er gic
regulator y
Ġb hlh
ty ros
Ġ hox
Ġm ac
ona ute
sub unit
Ġcytid ylyltransferase
Ġ unc
it ing
Ġg dp
cate nin
Ġcen ter
b d
k appa
ra xin
Ġ4 4
arg onaute
gtp ase
Ġre action
Ġc omp
home odomain
b oid
Ġre combination
am age
Ġb r
Ġb ase
Ġes terase
caro tenoid
w c
Ġactiv ation
Ġpe ri
xyl oglucan
neuron al
Ġp ath
Ġin tracellular
ind le
Ġis o
ph enol
velo pment
hom boid
cytos ine
car nitine
d x
im ida
an s
met hy
com b
geranyl geranyl
Ġcol lagen
Ġs torage
Ġac cessory
succin yl
dil lo
Ġc p
Ġp ell
Ġtri phosphate
ro ne
am ase
Ġnucle ase
d rosophila
Ġs keletal
et hanolamine
cy s
cg d
c ryp
n edd
Ġs ugar
bi sphosp
amin ocyclo
Ġprepro protein
stran ded
Ġma jor
c m
trans ducin
Ġa f
atur ation
Ġgluc an
st atin
wa y
s hi
al ene
ly mphocyte
leuk ocyte
Ġinteg ral
Ġlac tonase
k a
13 0
oc t
ec t
14 5
Ġpro cessing
4 69
ono id
d er
v ar
Ġula g
om utase
ep h
glyc ase
Ġamid ohydrolase
con verting
Ġde glycase
ib b
brom odomain
Ġ rap
Ġm aturation
mal e
Ġ ub
pa x
b k
pro l
po u
por ter
Ġcyclo hydrolase
aminocyclo propane
eta te
ap le
0 10
a dap
Ġax on
in tra
ke t
glyco gen
Ġprolifer ator
Ġl sm
aden ine
phosphorib osyl
ibb ere
oc s
me riz
Ġpath way
o lipid
ot he
Ġat tachment
chrom atin
orn ithine
asc ular
Ġglyc osyl
Ġpyro phosphorylase
diss imilatory
g ata
z led
de saturase
ur en
Ġwa velength
5 00
m ut
cinna mo
Ġamino ac
bl tx
Ġcytos olic
b et
pa ra
fol din
Ġrec ti
ibbere llin
h ormone
s ox
ad er
Ġf rom
lact amase
p ur
ophi lin
Ġmeth yl
s ur
Ġt ra
e long
g ag
h x
gl u
ru it
hypothetic ial
ent aple
ol gin
st arch
lan t
transfer rin
som at
) )-
riz zled
mo ter
cap entaple
co up
Ġal k
ther s
capentaple gic
cy to
pat hogenesis
- )-
f t
m is
r un
hc g
Ġpro line
f lowering
an ion
pero xin
rx lr
al li
Ġf y
Ġp dz
as ter
trop h
Ġtransloc ator
hep at
sulf atase
und ant
lamin in
Ġmann osyltransferase
Ġc omplement
spi ke
othe lin
Ġa ae
phospho protein
cryp tochrome
Ġaminoac rylate
gene tic
caf fold
Ġne utral
0 12
rop hin
Ġdi ss
Ġembry ogenesis
pet ala
imida zole
f ad
m ulator
Ġlo w
squ alene
lip oxygenase
Ġdi phospho
Ġend othelial
sm ad
asparag ine
con ven
mye loid
y e
last in
Ġy ip
macro phage
bisphosp hatase
intra flagellar
Ġfy ve
Ġc ere
re stin
Ġ4 9
w w
uc ida
Ġa uto
ad ren
0 18
pro grammed
phy tochrome
conven tional
Ġc lp
Ġme lan
Ġpell ucida
Ġo uter
Ġmotif s
am idase
as is
Ġs nrnp
Ġco a
poly peptide
15 8
fy ing
id y
Ġ4 8
Ġnucle oprotein
mic rosomal
poly merase
Ġula d
c sa
k gp
v ascular
Ġch itinase
kgp dc
op i
10 7
hydroxybenzo ic
py rid
cor tico
te x
Ġc adherin
un fold
Ġe if
sti mulating
cent romere
unfold ase
pro lifer
metallo proteinase
Ġ5 4
spec trin
Ġpy ruvate
ri le
Ġv dj
Ġtranspos ase
Ġmorpho genetic
ain st
cyan idin
Ġag ainst
s ap
id ine
op oly
glyc osyl
lact ate
Ġsn rna
Ġphosphatidyl inositol
e z
Ġf la
100 18
flav onoid
ana phase
Ġab undant
Ġche ckpoint
Ġb re
ab hydrolase
aspart yl
rik en
f lj
g r
on cogene
Ġaden ylate
transloc on
c ullin
Ġt hy
Ġt arget
Ġde capentaplegic
10 4
Ġcon opeptide
33 3
g d
x i
se ro
Ġs u
le ader
Ġreg ulated
def rin
o k
Ġn edd
10 8
Ġr rna
ri a
it amin
Ġ4 6
synap totagmin
i zing
Ġc ent
Ġp ent
loc us
atri uretic
cortico tropin
ig in
cell ulose
so defrin
i od
ma dillo
0 17
guan osine
Ġorgan ic
10 9
glyc in
Ġsol uble
epid idy
coup ling
Ġh is
map horin
sus hi
os y
11 8
Ġcarboxy kinase
c lone
al do
am ous
cinna m
phe romone
b c
Ġc ul
Ġd rosophila
co umarate
Ġ4 7
pre pro
gro up
retin oic
Ġion otropic
Ġendo trans
r up
oly tic
hydroxy methyl
rol ine
Ġim mun
sna re
Ġvir us
he me
Ġrepeat s
fi lin
mb da
mo thers
c ation
g ibberellin
Ġmetallo peptidase
nes yl
pyr roline
antho cyanidin
Ġne u
av en
Ġmon ocarboxylate
caro tene
or phyrinogen
rac id
Ġar rest
f am
Ġu dp
orph in
i le
r ase
Ġm is
da te
Ġcon vertase
cl usion
ri l
un conventional
prol actin
Ġp a
ul tra
Ġsulf ate
retin ol
0 19
b er
f a
Ġh sp
Ġreg ulation
ct d
0 15
or a
Ġs us
induc ing
Ġtri m
pf emp
mf s
e arly
f as
r homboid
ri lase
Ġt ub
Ġlys ine
ti tin
11 6
ceram ide
0 26
s wi
pro ton
Ġp ol
di x
f at
p l
le ase
ia e
acetyl choline
fer redoxin
g aba
k ir
Ġin vertase
10 5
Ġdy nein
b b
ed in
es ter
trop hin
calc ineurin
m l
o hydrate
Ġ orf
Ġm eta
ul ase
rib onucle
Ġcytokine sis
trans crip
ine sterase
specific ity
carb ohydrate
68 6
galac tose
vis iae
dihydro lip
cinnamo yl
Ġdiss ociation
9 1
g ran
Ġ lic
Ġre lease
od erm
Ġw rky
inos ine
glucos ylase
cis ion
immun globulin
r s
t ata
reg ulating
den um
cop ene
grad ing
Ġendotrans glucosylase
dihydro flavonol
xy lan
Ġcere visiae
aven ger
a petala
k im
yn uren
Ġ7 5
fe fe
z nf
la den
ad am
11 5
glyc oside
le v
h mg
os aminidase
Ġpro moter
m us
Ġ8 3
phosphatidyl serine
c n
t ho
Ġsulf ite
kim ate
Ġi b
poly galacturonase
Ġc athepsin
ent in
od ine
s r
lec tive
mye lin
Ġm ar
oac etate
0 24
0 28
z ona
ox id
termin ation
lic hol
do lichol
a ran
n if
s w
ser um
lec t
ata xin
Ġab hd
seudo uridine
f m
m kiaa
an odine
sperm at
nes ium
Ġauto antigen
an e
ar rest
Ġ5 3
col d
far nesyl
6 00
pro collagen
ep ress
Ġpoly ketide
loc k
a xin
p ap
al d
11 9
Ġinter feron
amyl oid
r k
or ter
lu e
Ġ ri
vol ved
c ul
n hs
r ha
ho g
100 03
ton in
hem ocyanin
c b
yn d
thre onyl
galact osyltransferase
a h
ro ss
Ġrib osome
neu ral
bre vin
Ġdip eptidase
d key
en k
10 6
inc ompatibility
tive sic
cu ticle
open ten
Ġvi ral
Ġmac ro
tivesic ular
d on
ati date
di ac
dop terin
0 16
ar madillo
ili ary
plas tid
c hymotrypsin
Ġc dc
os uccinate
Ġt rm
mal ic
stin al
at us
ha ne
ain e
ar tic
galactos yl
mat ch
s ac
Ġd amage
Ġin volved
ch ing
thy ro
epress or
li t
ub c
cha peronin
cell ulase
)- )-
val onate
Ġp ip
eptid yl
13 5
Ġvp s
ta ted
phosph atidate
poly adenylate
peptid oglycan
dis ulfide
mono phosphate
ific ation
sp ir
end othelin
Ġgly co
Ġrut f
p is
Ġs a
Ġaxon emal
Ġk ine
Ġde velopment
art ner
nat ural
k re
s accharide
Ġc og
com m
ynuren ine
h istocompatibility
i ver
s nrnp
t l
ore cognition
ad hesion
troph ic
xylan ase
spir atory
t amine
Ġde fective
Ġn f
tic ulin
Ġq ora
epid ermal
b la
Ġm ig
am osa
og aster
Ġe ukaryotic
st ress
nucle ic
aden yl
signal ing
blast oma
den n
Ġamid otransferase
iet in
ic ar
cell s
Ġmod ulation
Ġmelan ogaster
Ġcog nate
k i
Ġhydro lyase
Ġtranspos able
Ġiv a
1 50
Ġ oc
se maphorin
de grading
lo vl
Ġii h
ag amous
Ġz z
nit ric
Ġinterac tion
Ġ ran
se lective
Ġs ar
molyb dopterin
chole sterol
ha lin
la k
cy ste
ubiqu it
yp ical
el low
b le
Ġs al
re ticulin
os s
im munoglobulin
oxy late
fib rinogen
caf fe
Ġcor epressor
dyn actin
t g
rac t
lyl transferase
leuc yl
pect inesterase
m u
uro nate
anth ine
c lip
ss ion
bran ched
ubiquit ous
Ġse len
hex osaminidase
b ra
o li
Ġm etal
12 3
cd k
squ amosa
r lk
Ġn atriuretic
nit rate
fibro nectin
1 17
m ulated
Ġ transform
ep silon
rib osyltransferase
de ad
pre foldin
cre atic
epididy mis
b ro
l b
u v
in active
ly copene
me i
Ġ5 6
ak i
we et
lect ron
d n
Ġ thioredoxin
ne utral
Ġb ra
Ġt rip
Ġv er
Ġsynthe sis
Ġend oplasmic
c x
f c
Ġmit ogen
ocortico id
k h
t f
os ylase
et ox
ck le
Ġex cision
rab in
alli kre
Ġpent raxin
etox ification
allikre in
Ġm ap
amino lev
el le
Ġprote oglycan
aminolev ulin
tor e
gen ic
Ġla mbda
Ġsti mulator
g ing
Ġt rop
ta f
eryth rin
pyrid oxal
spermat ogenesis
o y
t s
se lf
Ġs ox
ic ator
as h
acid ic
e u
s am
end osome
s ingle
mp hom
lamin o
b ec
ho ok
ste rone
Ġsp indle
rg ed
Ġmono phosphate
phosphofructo kinase
elong ator
b lue
u ven
Ġ nad
in nexin
cal reticulin
do wn
wa velength
Ġmul tivesicular
uven ile
0 29
pro ge
Ġf ar
is m
ore scent
tri m
mphom a
0 27
c rib
c ru
Ġal dehyde
Ġcar b
hepat ocyte
re cep
Ġm ag
de fective
di f
Ġac tivity
Ġv on
15 3
n m
ly zing
18 0
vp s
nod ule
8 00
f ruit
o bp
it helial
ol d
end onuclease
Ġse mialdehyde
Ġ6 5
ogen ti
tri sphosphate
p d
v itamin
Ġc ullin
enk ep
hom ogenti
0 25
f an
Ġs caffold
re tro
Ġd r
cep ti
Ġrib ulose
fl or
Ġguan ylyltransferase
rn ase
rha mn
Ġ rac
f r
l eptin
p b
Ġs ocs
13 6
pro filin
en in
ex portin
Ġad ren
integ ral
rid ging
cepti bility
2 20
a rom
ind in
de can
st ans
nu dix
Ġmis match
d ge
f rizzled
m etal
p ic
s bp
fer m
tha p
i q
k ynurenine
ar restin
con i
bi le
toch ore
multi ple
dge hog
t om
un k
ter n
ind ependent
ded icator
homocy steine
Ġsus ceptibility
o ate
Ġ emp
cha rged
Ġ omega
pro to
ri m
hib itin
d ic
de l
lip in
thre e
aden ylyl
mann osyl
alan yl
(+) )
glycin amide
0 50
of lav
Ġex tr
coa g
az al
Ġneuron al
Ġextr usion
d rg
g g
Ġ epimerase
ri dy
Ġk if
Ġwe ak
Ġrecti fier
ac ylase
nit rite
Ġau x
ep hosp
Ġpro duct
Ġu ridy
and rogen
gli adin
duct ance
Ġcomp ound
ti r
12 4
ure id
h er
at anin
Ġp urine
in organic
le af
ar c
rac il
d db
Ġ hy
ro phospho
ch in
acet oacetate
Ġweak ly
e gf
g re
p it
u se
Ġ termination
ro t
Ġm cm
is openten
de ath
Ġpoly phosphate
ry anodine
Ġperox is
Ġsulf ur
ill in
(+) ]
pis ti
c dp
s lo
ac y
ar sen
100 17
shi kimate
c atalytic
p hilin
r np
Ġi d
Ġin ward
gly oxylate
Ġguan ylate
p ii
ll ata
ca at
prop yl
g olgin
Ġc ad
sp e
Ġt om
Ġn ac
100 14
crib ed
Ġuridy lyltransferase
d ol
Ġre tro
mit otic
t arget
Ġ nadh
igh t
Ġanti porter
c tp
i x
tili sin
Ġform yltransferase
embry onic
cyst atin
re spiratory
Ġm ynd
ic a
rb r
d om
Ġc ond
enkep halin
0 60
p last
ac c
un specific
of u
hydro lyzing
dehyd ration
sc avenger
mon ium
vesic ular
multi functional
Ġtra fficking
b m
t ap
Ġs ir
an one
12 5
Ġmo tor
Ġrut a
leaf y
k allikrein
or igin
ac p
Ġti ssue
prop ion
Ġd dx
min ogen
0 40
0 22
k l
o va
p ed
Ġt w
Ġe arly
enhan cing
Ġfib ro
Ġdo uble
Ġ qu
Ġa quaporin
pho t
fo ur
fan coni
h b
p x
am y
dy st
pur ple
Ġd bla
le g
aa a
macro globulin
te s
en om
Ġd etoxification
Ġk iller
ens ation
all orecognition
Ġimmun e
trop ic
Ġrp c
Ġaux iliary
n c
z ol
oc in
con trol
gen t
Ġa aa
de capping
14 0
Ġ7 6
ens ing
let hanolamine
Ġix ostatin
Ġha cp
omy elin
Ġfi lament
pisti llata
c mp
Ġm tor
Ġt oxic
anti microbial
phosphorib osy
re sponse
ox idoreductase
Ġv enom
16 8
ex osome
radi ol
double sex
stro mal
sphing osine
Ġnit rilase
0 70
ep oxide
Ġcon ductance
12 6
dehyd rin
Ġdis integrin
Ġmod ulating
bre ast
c at
Ġs am
14 9
Ġx m
fol lic
syn thase
c ili
vi o
gel la
opoly saccharide
Ġhis tidine
z eta
Ġc ross
10 3
tra f
Ġro d
pol len
ect onucle
Ġlic ensing
tore ceptor
e b
f us
r yl
Ġc ub
ot ub
Ġrp n
oci ating
r d
Ġc ase
Ġr rm
Ġly sis
hydroxy iso
04 9
cd s
opo ietin
selen oprotein
l at
est radiol
ril lar
Ġ testi
em ia
ular in
cp g
opi oid
g o
p vi
at ine
Ġd rb
am monium
ch ored
odor ran
Ġphospho hydrolase
fy ve
Ġaf finity
u sp
on it
ep ithelial
Ġan emia
Ġn ip
ass ociating
dihydro uridine
Ġthe ta
cyst athi
ket oglutarate
m er
un ting
of ilin
rop hilin
03 8
Ġver tex
c bf
d of
Ġp i
Ġt r
Ġt nf
13 9
Ġglut amine
Ġtri functional
che l
nec tor
Ġfla gella
ubiquitous ly
otub ularin
p let
Ġ os
ho don
amino acyl
Ġcal modulin
plet hodon
plethodon tid
p rp
t ac
dy stro
form amide
Ġpo larity
u rop
Ġm ut
os itol
Ġco q
amino hydrolase
thi ol
sc p
af finity
Ġ genome
co ron
Ġin ositol
gly oxal
mic os
Ġsecre tion
hyal uron
prolifer ating
rup pel
Ġmig ration
d ep
lo ro
pre g
12 8
Ġrut d
eg g
lb ene
e lectron
g ast
Ġs w
al act
ti ssue
Ġp hd
Ġb y
Ġa po
di an
Ġcell s
man nan
Ġorgan elle
Ġneu ropeptide
pii ia
odorran ain
or tin
Ġp le
Ġtrans cribed
Ġprote olipid
gonad otropin
ephosp ho
isopenten yl
2 10
c ed
c lu
f re
Ġs nf
homocy ste
i ol
le a
Ġp artner
Ġb and
17 5
neu rop
ud or
c tin
m oti
ly mpho
ta u
15 5
endo protease
Ġnedd ylation
Ġcase in
homocyste inase
b at
i v
Ġa pp
Ġ5 1
my o
mon ocarboxylate
urin ic
l uc
y lethanolamine
Ġb ran
Ġcl athrin
ben z
r bp
Ġ lethal
Ġp an
vi rin
flav anone
Ġacetyl galactosaminyltransferase
coag ulation
unting tin
7 33
k c
Ġc ir
li ver
Ġi ia
Ġcon otoxin
Ġly so
cili a
on ectin
ar m
ap urinic
Ġhomolog ue
glutam inase
hex okinase
sar co
laden osine
b otropic
n ase
Ġ ed
pro hibitin
Ġp almitoyltransferase
Ġpro cess
56 1
Ġaden ine
dis integrin
alk yl
br ca
o v
Ġc la
re combination
Ġa a
Ġla te
Ġpolymerase s
mp orter
phosphatid ic
sero tonin
Ġ eta
ro ug
Ġs il
Ġs dr
ig g
Ġt ract
Ġde grad
poly pr
aden ain
Ġphospho inositide
pec tin
buty ryl
Ġinterac tive
pat atin
v ing
ch loro
op lakin
sti lbene
tri o
Ġthi olase
halo genase
f b
g ht
m ar
s g
me s
ta g
03 9
py ro
omy cin
dif ferentiation
c idin
h th
o wn
Ġp seudouridine
thi otransferase
bre v
dyn orphin
tyros yl
eph rin
f em
o blastoma
p lant
an chored
Ġa pyrimid
um atin
st ing
ist amine
07 8
sti mulated
bet aine
Ġtransform ylase
Ġapyrimid inic
b erin
k n
k ruppel
p as
r ub
s umo
ig a
st ri
fi lamin
Ġmann ose
sk p
m uc
m rp
ox yn
00 7
10 2
nucle osome
gc r
flor ica
florica ula
n ip
Ġc amp
al dolase
sp ry
syn the
hep aran
fuc ose
Ġde halogenase
cy tokine
lip opolysaccharide
13 3
12 7
ca dian
ocy steine
cyc lase
unk own
4 34
us ine
14 8
hem erythrin
dop amine
Ġperoxis omal
i k
t og
Ġf og
ch c
mo oth
thi o
sen sor
hyp usine
Ġs weet
Ġi g
17 8
hydrolase s
04 8
carboxy lesterase
Ġaden osine
perip lakin
c ir
Ġp rp
Ġii b
gluc ocorticoid
15 6
phosphatidyl choline
form in
Ġar f
adenosyl homocysteinase
adenyl osuccinate
oxyn ucle
h r
Ġi f
11 1
Ġer f
Ġtub ulin
s low
em ent
Ġ6 3
bi otin
fi ed
dis ks
cyto kinin
m j
r cc
v on
Ġ ra
Ġc e
Ġn itrate
oly sin
st asis
Ġtranspor ting
Ġfacili tated
Ġhydroxy methyltransferase
f ascic
ri gent
di rigent
min in
oxy gen
Ġat ypical
Ġcal p
aa el
ger min
Ġthi ol
sac sin
u racil
Ġ ve
Ġd ual
as hi
il lar
almit oyl
cch c
tyros inase
transcrip tase
g st
t gf
Ġf o
16 6
thy mid
buty rate
Ġprote olytic
Ġsy mporter
tern ative
Ġs na
00 00
tryp tamine
fruit f
i e
t cp
Ġc chc
ub x
mal onyl
20 5
Ġnucle ic
Ġperox iredoxin
Ġzz d
k b
Ġ th
it ary
con stans
10 1
calp onin
Ġtransduc tion
threonyl carbam
p si
Ġ erythro
op to
13 4
my otubularin
oac rylate
ureid oacrylate
vio let
glyoxal ase
9 00
Ġ tetra
se ed
Ġf ast
Ġh ep
lo od
17 4
Ġhe m
Ġr f
ple xin
rb d
retin oid
pi wi
Ġreduc tion
Ġmacro phage
Ġdegrad ation
b and
j ac
ri lysin
ut rop
Ġsub type
05 8
press in
chrom obox
Ġrut b
Ġaae b
2 14
e y
s ch
am id
Ġe long
me ric
Ġex oribonuclease
phy t
immun ogenic
Ġapp ar
p ra
Ġb zip
ul t
Ġa rom
Ġn ot
ma xi
20 4
hydroxy tryptamine
Ġappar atus
c rt
s lit
al amin
Ġse ven
00 8
13 8
tri phosphate
sen t
hib iting
meriz ation
dihydrolip oyl
urop orphyrinogen
Ġ enoyl
ha lase
co b
Ġt m
13 7
49 5
Ġgluc ohydrolase
Ġmulti ple
coron in
o bate
na sal
Ġg li
poly ubiquitin
sti zol
transpos on
hom olog
chrom odomain
env oplakin
stizol obate
i re
in tracellular
Ġd op
Ġm ab
is h
deoxy hypusine
opto tic
glyce rophospho
Ġtransloc ation
ach in
transfer ring
Ġasp art
adap tor
Ġm at
Ġg st
st onin
13 2
12 9
Ġr ute
otid yltransferase
Ġmon omeric
Ġneuro trophic
Ġmal onic
Ġtarget ing
4 68
d reb
Ġc om
ran i
oc ep
Ġin clusion
ad d
Ġl og
03 6
mag nesium
sperm idine
Ġbr ca
ephospho transferase
d em
Ġ amine
Ġ thrombospondin
12 1
poly comb
cd h
transloc ase
anth in
Ġpho toreceptor
meriz ing
onit ate
ocep tor
- /
te ri
Ġc ox
Ġp urin
Ġse nsor
st a
16 9
zo ite
w il
00 3
ome ro
synap tic
Ġcond ensation
brev inin
ro in
14 7
Ġ7 1
si zing
gp r
uro nan
5 60
b ur
Ġg rb
is sp
op lastic
im a
Ġha lf
Ġmi racid
Ġorganelle s
Ġmiracid ial
f ox
s x
Ġp rim
Ġt bc
Ġn u
14 6
las tase
actin in
Ġinte stinal
Ġyip f
synthe sizing
t udor
Ġde f
oly merizing
sti tu
den sin
ecdy steroid
emal e
aki sphosphate
f p
h n
he lic
Ġ5 7
cg mp
com a
Ġinteg rin
Ġpat ch
arom atic
Ġtw o
h untingtin
u itary
an oct
Ġsp id
ex onuclease
sen se
val bumin
Ġcar cin
Ġlys osome
arsen ite
anoct amin
g ra
00 4
vi te
arbox ylate
ten in
prop yltransferase
Ġfi ssion
- >
t actin
Ġs af
Ġc ho
Ġf er
Ġd ensity
le u
ser yl
09 8
acetyl galactos
phosphatid ylethanolamine
ofu ran
chloro respiratory
ac e
Ġi r
id i
st ar
ma illar
20 3
Ġsp hing
tri methyl
phot otropin
maillar d
p ant
poly ketide
05 9
med iated
nif h
c caat
f ast
s b
re x
Ġcon jugating
phospho pyruvate
06 5
tre halase
ocor tin
Ġmed iator
Ġsynap tic
acetylcholine sterase
oss ible
g am
n i
p ab
on uc
Ġs can
ol act
Ġsp t
Ġass ociation
nan cy
thy m
transloc ating
Ġneuro toxin
Ġpurin oceptor
Ġhe me
formyl tetrahydrofolate
p ep
Ġc rystallin
20 8
fi lament
Ġat g
neu rom
dyst rophin
on y
qu eu
Ġn drg
12 2
carb onate
Ġdo wn
ez e
proge sterone
c ral
Ġ ethanolamine
at hy
re l
Ġp rm
Ġ7 2
Ġchlorop hyll
not ch
ye ast
Ġadren ergic
x vi
Ġf old
Ġn odulin
gl n
um aryl
Ġpro st
rogen ic
molyb denum
cyste inyl
om odulin
Ġb ac
ul o
00 9
ex os
sphing omyelin
re pressor
Ġp lac
Ġk not
de oxynucle
Ġn ic
17 7
20 7
Ġr rp
19 8
Ġ10 1
Ġz e
asp artic
) /
e h
ent al
amin ide
Ġhydrolase s
ocy tosis
Ġti l
retin oblastoma
Ġnit rite
fre eze
Ġp ax
Ġser pin
07 5
07 9
g ras
i zation
m c
s ca
ar p
is co
di hydroxy
Ġgly ce
Ġx yl
Ġglyc osylase
fol li
cre atine
Ġwe ight
pit uitary
omero nasal
7 79
v omeronasal
Ġs g
Ġf t
Ġp p
ke tol
con densin
glut aminyl
Ġpro enzyme
Ġreduc to
2 23
4 40
l ute
p ig
pro top
Ġre leasing
Ġh d
Ġe lav
ome valonate
phosph omevalonate
sup erfamily
Ġprolifer ation
gre en
Ġreducto isomerase
0 11
v an
Ġm gc
riz ation
bi ogenesis
phospho serine
ta ke
06 8
ultra violet
ald ose
follic le
b ic
g em
k k
t n
u tion
Ġs rp
tic al
im p
ste rile
Ġgluc osyltransferase
cop ine
Ġkine sin
phosphoribosy lamino
c ox
Ġre t
Ġm ak
ne trin
Ġt u
50 6
03 7
sen ilin
Ġpe rip
ct l
cinnam yl
sensor y
j un
z ed
Ġ gen
ro w
at oxin
Ġc one
li fied
la ne
ep rilysin
Ġi ap
ar in
di sease
Ġv a
17 3
ot ocin
Ġcon nector
Ġhe x
poly nucleotide
06 9
lys yl
Ġsti mulating
rec tional
thyro tropin
idi rectional
a ro
k p
Ġd ia
Ġsub component
Ġl rr
ab by
gluc uronate
cinnam ate
a rabin
g ger
y ellow
Ġan k
20 6
08 8
pan creatic
Ġspid roin
2 40
s ystem
Ġs low
Ġs umo
di ester
17 9
tha umatin
Ġup stream
s ate
hydro pho
17 6
bi lane
my ocyte
Ġribonucle otide
p la
s ant
yl oid
Ġg u
pre cursor
op horin
ist al
Ġ8 8
04 7
met hane
acetylglucos aminyl
ren in
translation ally
tot oxic
fic ation
pect ate
Ġiso zyme
hydroxymethyl bilane
2 26
15 4
15 9
Ġ8 0
05 6
aryl sulfatase
plast o
2 19
Ġp sbp
di methy
tos in
hydroxy methylglutaryl
ris c
Ġti p
all ata
Ġstimulator y
vite ll
or ax
na s
Ġk er
Ġt at
my ostatin
sse n
transform er
rf amide
Ġple ckstrin
Ġcarcin oma
Ġsaf a
ofuran osidase
e sin
f umaryl
o kinin
li sh
ut y
Ġk azal
Ġde ad
duc tion
ab l
15 7
Ġ8 5
Ġam yloid
threonylcarbam oy
g b
al ac
Ġh i
Ġpoly comb
14 4
16 4
Ġ9 2
03 4
inter lac
sulf ite
Ġrho gef
tico pper
Ġflu orescent
interlac ing
n op
s nap
pro por
ri tol
Ġd p
he ral
Ġm lk
Ġp ur
gen er
lic ate
eryth ritol
micro globulin
Ġcu ticular
vitell ine
b ri
p ossible
r ve
Ġp las
Ġt s
rop orin
Ġ6 1
16 7
thi amine
ere bp
Ġmodi fication
ocarbox y
b idirectional
u rid
li zing
le ep
op last
Ġex o
hyal uronan
fus ing
fascic lin
2 50
in izing
on ase
Ġm olyb
di po
Ġde fic
st art
Ġii f
ome re
lip ocalin
13 1
Ġphospho transferase
nicotin amide
dip ht
adren ocortico
preg nancy
Ġcla de
Ġnot ch
neurom edin
b mp
m am
p almitoyl
q t
le ran
Ġse x
reg ulin
cyclo transferase
Ġsir tu
Ġmlk m
e vol
in ward
Ġc bf
hi l
16 5
19 0
hep cidin
Ġmed ium
Ġglucan ohydrolase
ketol ase
w f
ro sin
Ġs ta
ke le
Ġh cha
hi p
18 8
23 9
Ġcyc lic
Ġnon sense
angi opoietin
rf a
phenol oxidase
Ġmap k
Ġnic otin
2 12
Ġd c
Ġh mg
Ġde rived
op las
Ġ5 8
Ġpro ge
somat ostatin
Ġaae a
g rin
x r
Ġk ctd
Ġt re
ch ond
Ġ6 6
Ġ6 8
Ġo bp
Ġmoti lity
ug bp
sc ence
Ġlarge st
Ġcytos keletal
n b
is ic
Ġse g
op he
Ġhe dgehog
Ġ9 3
gp n
lys m
sap osin
Ġsu peroxide
bro ad
dic er
Ġker atin
Ġb lood
vi virin
20 9
39 8
fla vivirin
hol og
sist ant
Ġsulf o
radi xin
mut ant
iod inase
caffe oyl
hyaluron idase
d istal
k t
k ca
o amide
s rp
re modeling
Ġm id
Ġp lant
Ġi c
con tactin
00 5
vi val
oxy carotenoid
poly pyrimidine
methyl transf
sv wc
phosphoribosyl glycinamide
cystathi onine
Ġarom atase
e lastin
m ide
t bp
Ġ ort
te mp
en ed
Ġg ran
Ġcha peronin
Ġ6 4
asp ase
b ar
g ator
p ost
in ate
Ġs uccin
Ġs leep
Ġf as
Ġh m
Ġan gi
Ġde iodinase
lig in
Ġ6 2
acet o
Ġw w
acetyl hexosaminidase
18 6
phosph om
mo esin
pho s
Ġtri ad
ost asis
recep tivity
pant oth
c it
t ate
Ġ1 70
Ġm ms
og alact
ab sc
09 6
07 6
08 9
55 8
Ġhome ostasis
ethyl thiotransferase
(+) /
Ġcar diac
Ġcop ii
adap tin
Ġcomplement ation
oli berin
Ġqu iver
utrop hil
Ġsulfo ethylthiotransferase
Ġsleep less
Ġde oxy
Ġep id
Ġspli t
cyst okinin
ceram idase
bac te
f h
f s
m lo
Ġd q
le m
ic olin
my x
04 6
Ġal ternative
sep allata
gonad oliberin
homogenti sate
polypr enyl
Ġ amin
Ġc hemosensory
cep ha
um b
tic in
Ġ5 9
ma x
03 5
Ġco hesion
Ġat f
chole cystokinin
Ġmus cul
Ġperi trophin
rve sting
d ig
n ig
r enyl
y abby
Ġb cl
Ġg e
acetyl neuramin
ogen in
car diac
argin yl
retin al
wa ve
bran ching
Ġpho tosystem
spe ckle
control led
end ophilin
Ġv is
ot ri
Ġ6 7
23 0
kine tochore
Ġam idase
Ġlin k
Ġpat hogenesis
adrenocortico tropic
Ġsirtu in
kele ton
c am
pe e
Ġh la
to brevin
Ġmd m
glutamyl cyclotransferase
melan oma
rub isco
ophe rol
p um
Ġs nap
Ġs ingle
Ġn duf
Ġla m
100 145
Ġab sent
syn decan
der lin
Ġce ram
Ġplac e
b ig
n sp
u in
ep pel
Ġisoform s
od oxin
ron ine
Ġspec trin
Ġchlorop last
all at
Ġelong ase
g ut
g mp
p od
Ġm l
id ne
Ġn k
vi llin
ru eppel
tel omere
synap t
Ġmet hy
rhamn ose
tac hy
2 16
re la
activ ation
19 9
Ġpe racid
Ġrut c
integr ase
Ġau xin
sarco glycan
ulo viral
plasto quinone
v h
Ġ terminal
at s
le xin
as se
ary op
carbox ylase
Ġpro to
vari an
far ne
ps bp
ocal cin
, -
2 60
e lovl
p urine
z e
ha p
Ġt ol
qu ired
cy anin
Ġal bumin
nes yltransferase
tm em
tes ticular
roug h
phosphoribosylamino imidazole
Ġmolyb denum
absc isic
c bl
i en
m or
o u
s hsp
Ġc pi
Ġp late
hy ronine
ot hyronine
transpor t
phospho hydrolase
Ġhe ad
07 7
Ġlyso zyme
urid ylate
i ry
r wd
ri llin
oc k
end othelial
Ġe lovl
Ġn sl
ros ome
mp f
tos ynthe
30 4
neuro ligin
bl ind
Ġoxy gen
radi al
cru st
hydropho bin
Ġplate let
w us
Ġs mooth
Ġd rop
14 3
29 5
asparag inase
iod othyronine
ey es
Ġdef ensin
w ing
Ġ ubiquinone
Ġ hydroxysteroid
Ġ1 10
ve ment
pe ti
Ġg yp
Ġsyn taxin
Ġhe tero
meth enyl
es ke
Ġphospho lipid
ez rin
luc if
2 15
e lav
ti ght
Ġp rfa
oc r
Ġk v
Ġe st
op terin
duc ing
Ġ9 9
04 3
06 4
Ġend osomal
yp t
chan ge
lac to
translation al
tosynthe tic
Ġdrop let
2 13
2 18
c oc
Ġd up
ly mphoma
la ris
Ġp ap
Ġa na
Ġa utophagy
ge lin
05 7
secre tase
Ġcalp onin
ocarboxy propyltransferase
phosphom ann
Ġamin ocarboxypropyltransferase
Ġcpi j
w at
Ġc td
Ġf to
sp oro
ep oxycarotenoid
ne scence
Ġb c
Ġne gative
jug ate
plas minogen
meta botropic
stitu tive
peti tive
c bp
i min
k atanin
on ol
di al
pre senilin
car cin
aa i
sial idase
Ġmulti functional
aminolevulin ic
Ġcarb am
Ġcir cadian
ien cy
c ugbp
Ġne ural
fe l
06 6
sen trin
carboxy propyl
deoxy ribonuclease
Ġimp ortin
hypox anthine
Ġdiphospho hydrolase
Ġort holog
methenyl tetrahydrofolate
b ridging
f lexin
o ut
Ġf ox
sp indle
Ġm hc
trans gelin
Ġde acylase
Ġ7 4
04 4
halo acid
sub tilisin
iet y
Ġyip pee
aminolevulin ate
exos tosin
Ġvis ual
d al
x c
Ġs ha
na scent
de grin
lig ase
Ġr b
19 4
Ġu fm
carb onyl
pho tosynthetic
Ġchrom atid
bac uloviral
Ġge ran
tachy kinin
f tx
n up
in o
re sid
re cognition
Ġp eptid
cy tic
ht hal
ex por
phosphatid yltransferase
pho sv
Ġj uvenile
methi onyl
hox y
Ġcop per
Ġbac te
phosphomann omutase
phosv itin
j uvenile
Ġre v
is oflav
lo protein
ec rh
16 3
ath min
Ġixo degrin
phosphogluc omutase
oac tive
Ġmit otic
male yl
Ġtrop onin
lute inizing
Ġpeptid oglycan
c as
h rom
m m
rib onuc
cy tid
my ogenic
18 4
il k
ag on
04 5
pp p
transloc ation
Ġcg mp
Ġmms k
ocr ine
fel din
ribonuc loprotein
a gl
s ha
x anthine
Ġ op
Ġ erythrocyte
Ġs ur
am erin
os yn
Ġg ated
fec t
09 3
ute nin
Ġz nf
ili o
Ġaden osyltransferase
Ġrp b
par valbumin
throm bin
zf p
Ġpo z
Ġretin ol
retro virus
pic an
rani late
olact ate
expor ting
2 70
c ad
i an
y rase
z a
al ky
Ġf lower
le ted
ed l
an oyl
Ġre petitive
os amine
ul ence
15 1
18 9
hydroxy phenyl
Ġmo iety
bp ti
bs b
Ġmethy lesterase
asse mbly
maleyl acetoacetate
- )
a ra
h ma
s hock
ac onitate
er c
he d
Ġk qt
09 5
09 7
si x
es ity
thi orib
24 5
08 5
leuk otri
Ġmy e
pent raxin
amy cin
leukotri ene
c andidate
p v
s rc
v b
w s
Ġs tran
Ġb ax
Ġ7 8
ca y
Ġq bsb
Ġmeth ylase
49 6
accha rop
ard et
Ġste rile
Ġmi x
Ġdiphospho kinase
Ġsil en
Ġepid ermal
3 03
d ing
g et
s keletal
Ġ one
Ġm af
lo ti
lig and
bi edl
si tivity
Ġch itin
05 4
sperm ine
sur vival
ribonucle oside
Ġbran ching
Ġmolybdenum transferase
a ir
p ks
or phan
en ate
Ġc ut
Ġd hx
sp in
sp arc
ne utrophil
Ġt f
ucle in
op y
up stream
Ġly mphoma
19 5
ug min
adip onectin
Ġglycosyl ation
dep olymerizing
Ġmuscul us
synapt osomal
loti llin
c ac
d ane
m x
p al
w h
Ġf mr
ono yl
ocy tic
methyl ene
glutamyl cysteine
sna ke
Ġste roid
genic ity
Ġsulfur transferase
mes oderm
propor phyrinogen
oplas min
Ġgeran yl
accharop ine
dane se
f os
y th
at ure
Ġs ial
ain ate
ss mann
20 2
es crt
Ġ8 2
mo di
fac t
Ġro ssmann
c i
c ub
g um
s un
in hibiting
Ġs wi
Ġc n
ti tion
Ġm arch
ec s
Ġrib osyl
09 9
Ġco integrator
amino imidazole
22 8
po ke
Ġacetyl hydrolase
Ġrp abc
fibro min
Ġph ase
vas o
run t
Ġaa ex
folli statin
carcin o
c up
Ġg olgin
Ġg alac
co proporphyrinogen
my oglobin
Ġ9 4
19 3
30 8
rp b
thy retin
pi ck
stran d
dihydrolip oamide
pyro phosphate
Ġsilen cing
Ġ hand
ro d
pro phenoloxidase
ent a
Ġde termin
um en
min ic
07 3
Ġpa ra
del la
mj c
Ġsna re
thym osin
+ )-
5 47
f ip
o adenylate
ub p
Ġb ridging
08 6
home otic
au ro
phenyl alanyl
Ġalk b
k v
Ġ ot
in al
ran in
trans ketolase
trans thyretin
och or
Ġl umen
Ġdi hydro
Ġx i
glutam ic
vel led
Ġretin oic
Ġfar nesyltransferase
chin oderm
dystro glycan
Ġ transforming
he velled
an ten
Ġp ha
con jugate
Ġin s
Ġtrans activator
Ġse t
Ġo le
Ġpro duction
mo lec
Ġbi oprotein
buty rophilin
toc opherol
Ġsti mul
Ġasp arag
Ġerythro id
v ca
Ġ opioid
Ġs cp
ri sp
Ġk idne
em ann
im m
ta x
30 5
06 7
pent axin
Ġon coprotein
iso aspartate
Ġbre ak
Ġselen oprotein
glycerophospho diester
chond ro
wus chel
g as
u rate
Ġs r
re lin
Ġd ep
ho st
ig na
Ġn r
phospho esterase
my oc
Ġ9 1
ag a
inter mediate
Ġtranscript variant
pol o
Ġrecti fying
isoflav one
f emale
s ing
x k
Ġ hook
te the
at rial
Ġc hem
Ġd ic
it onin
la genase
Ġne k
lip rin
15 2
ruct ure
hem at
pan tethe
Ġgluc osidase
Ġbiosynthe tic
Ġar m
Ġhy per
cob alamin
ogalact an
igna nt
b ardet
d emethylase
g rip
y b
ti me
un g
sp rin
an ine
Ġk ir
em ase
og o
Ġn at
Ġ8 1
ex o
rho danese
fib rillar
sm c
fuc osidase
cate chol
Ġembry onic
calc itonin
Ġasp artic
Ġaspart yl
Ġdup licate
a sin
b as
h it
Ġc hol
Ġc wc
ac tonase
ed iting
Ġin sensitive
Ġv as
20 1
gluc osyl
25 8
Ġcar nitine
cyclo tide
ism ate
Ġinward ly
tition ing
auro ra
b itol
s ry
s onic
w y
on yltransferase
pha g
Ġl ine
ag ap
nac re
carboxy vin
Ġcar bo
iso val
mono acylglycerol
Ġcytos ine
Ġste rol
Ġiso enzyme
fm rfamide
hydroxyiso butyryl
a j
k ap
pro uty
ra mb
ne sprin
Ġg aba
qu ili
Ġcy statin
19 6
glyc osidase
Ġactiv ase
08 7
neu rogenic
Ġer cc
br ative
melan ocortin
Ġmag nesium
jac ent
dem ethyl
athy roid
onol actonase
Ġstimul ation
carboxyvin yltransferase
Ġcarbo hydrate
quili brative
Ġh it
Ġtrans amidase
Ġe b
st athmin
17 2
as te
acet olactate
27 6
gi le
pyrimid inase
Ġmet hi
lympho id
Ġnicotin ic
5 10
b is
i genicity
en se
om atin
ve rex
ce l
me c
18 3
Ġgl utenin
fib rillin
hom o
gh relin
Ġtumor igenicity
Ġglob ulin
transcrip t
slow poke
h istamine
Ġ testis
Ġd db
Ġa gl
cy stin
ch id
phospho shikimate
Ġnucle oporin
08 3
Ġend oribonuclease
Ġmul ticopper
lyso phosphatidic
cre b
Ġfib er
Ġsc ramb
amyl oplastic
hydroxybenzo ate
aro yl
Ġribosyl ation
b or
h p
p ac
Ġ quinone
Ġk h
Ġt raf
mal onate
si con
carbox yl
30 6
sec tor
Ġinter leukin
ard ation
mono phosphatase
cys tic
ectonucle otide
Ġret ardation
Ġscramb lase
5 69
p ud
t sc
v ig
ri an
ti m
ub a
Ġre quired
Ġm es
Ġp hy
hy per
ter nal
de velopment
qu inol
rib o
Ġac c
ot t
Ġto leran
09 4
Ġnucle otidase
Ġex tensin
mo b
pa statin
ali zed
all ene
tc f
Ġsen sitivity
oflav in
queu ine
b ack
s accharopine
t t
ti lin
Ġe ar
me valonate
op h
sor bin
50 3
Ġr nase
neu regulin
ure a
neuro filament
raf t
Ġup take
somat otropin
Ġ vesicular
Ġk ainate
di a
hex amerin
Ġy ellow
rg d
phan ous
homogenti sic
rela xin
j as
k rueppel
o lipin
p epsin
t lr
Ġ od
ti dial
Ġm g
Ġp lk
is k
de aminase
Ġn op
phospho pantethe
cal pastatin
to kinase
30 1
osyl protein
Ġad hesin
and em
Ġvi ia
g ed
p lac
an oid
Ġp as
de leted
oly ase
ad f
Ġl td
gluc agon
Ġnucle osome
mic in
rac tin
inte stinal
16 1
03 0
poly amine
Ġ10 2
mag uk
dihydro pyrimidinase
56 4
ack ing
cyst ine
dehydro ascorbate
seudo uridylate
iver sal
Ġsar coma
protop orphyrinogen
Ġgran ule
pum ilio
aryop herin
isk ott
Ġltd f
' '
m d
s ho
Ġf rizzled
er ature
Ġp x
ar din
ic e
Ġkinase s
Ġn dh
op f
17 1
si rt
Ġ8 4
Ġ9 7
il ine
glyce ride
ruv b
Ġgp r
Ġgp cr
nac ht
transpos able
Ġor phan
par athyroid
Ġmet hane
bk ca
Ġthy roid
ald rich
Ġglyco transferase
icar b
xvi i
Ġins ulin
3 70
] ,
b indin
f ra
f umarate
r he
w ash
ri cal
ha us
ha iry
ter micin
Ġe ssen
hi bin
Ġii e
Ġ6 9
carbox amide
23 5
fe it
sec tin
xyl osylprotein
pc i
iz ed
Ġkine tochore
Ġrac emase
ectonucle oside
3 10
3 40
d amage
l x
n g
in ner
hi te
14 1
amino adip
Ġpro lyl
30 2
cyc lizing
lan iline
Ġli fe
va sin
brom o
meta stasis
ww p
Ġprocess ome
dimethy laniline
ened iol
molec ular
c ofilin
d re
g ulf
k rr
k issp
m od
pro protein
Ġc ss
Ġb o
Ġtrans hydrogenase
ap yrase
phospho ethanolamine
14 2
amp lified
galactos ide
deoxy ribo
tryptophan yl
Ġun coupling
caffe ic
Ġxyl osyltransferase
gulf ment
kissp eptin
e le
k it
k not
l n
Ġin clu
23 4
ph yl
glutam yltransferase
py ruv
55 9
anti freeze
Ġform ation
cyclo oxygenase
Ġbra ce
Ġpan creatic
bur sicon
hrom osome
hydroxyphenyl pyruvate
a bility
b lock
d ock
h uman
k opf
n ck
n lr
un coupling
Ġ1 12
Ġm ental
Ġfactor s
rip en
18 7
23 8
mp h
26 6
Ġad jacent
ton oplast
29 0
37 9
58 6
np r
cur c
nicotin ate
plas tidial
Ġdeoxy ribonuclease
Ġceram idase
carcino embryonic
g rb
n tp
z in
se nescence
ri st
un da
la ge
Ġm x
Ġp eptidyl
Ġb tf
ic illin
Ġde cay
cy totoxic
pent akisphosphate
Ġrp t
prost anoid
Ġfib rillar
threonylcarbamoy ladenosine
Ġbioprotein sis
a q
b ind
e chinoderm
x en
ha mide
trans aldolase
Ġa ugmin
di phenol
ap optotic
Ġsp o
mic rop
Ġex porter
non structural
05 5
trip eptidyl
arf gap
muscle blind
Ġapo bec
fruitf ull
Ġmethi onine
Ġinclu des
a icar
b ute
d t
j u
j mjc
r hl
Ġs ide
ti lage
Ġk d
Ġsub tilisin
is ome
di methyl
ad ult
hi ol
vi an
gly pican
dis co
Ġinduc er
flu orescent
mei otic
Ġretro virus
teri or
dipht hamide
wy osine
sirt uin
a i
f lotillin
at inase
Ġs lc
Ġc ement
Ġp m
oc key
Ġk n
ta il
Ġr u
able d
22 7
top amine
Ġj ockey
Ġam ide
sy m
nan os
domain s
neuro fibromin
Ġrho a
Ġme i
gli oside
anth ranilate
Ġsal p
nm da
Ġfibro blast
benz enediol
Ġcho le
Ġdefic iency
minic hromosome
2 17
j i
t ar
Ġ threonine
Ġ hyp
at t
Ġf at
ho dopsin
ran bp
ke xin
ter f
Ġrib oside
nucle ob
60 4
60 8
leuc o
sc am
Ġgp i
syn tenin
bo li
lrr gt
cytos ol
peri lipin
sal t
ob esity
ans ky
galactosyl galactosyl
ie tic
nas cin
sporo zoite
Ġrb bp
curc umin
galactosylgalactosyl xylosylprotein
b g
h sf
l poly
r rp
u late
u ris
w as
Ġ ent
te c
ti s
he dgehog
Ġa ed
Ġt t
ind ole
da z
oly lpoly
Ġhomolog ous
phospho hexokinase
23 7
trop omodulin
Ġ10 6
tub by
69 0
Ġdy na
Ġsynap totagmin
Ġtol l
ara chid
uris hiol
c ocyanin
u a
Ġd ad
am m
hy sin
ck kopf
Ġt rin
od erin
50 8
Ġsp f
Ġdi kinase
22 9
wd r
erm ansky
Ġsm g
adip ocyte
Ġtr uncated
Ġdown stream
Ġseg ment
acetylneuramin ate
pud lak
icarb onate
f mr
s caffold
t v
un o
li s
orm al
Ġtrans ient
bi opterin
glut arate
22 5
glyc yl
55 3
Ġorgan ization
asparag inyl
rec row
prolifer ation
Ġtrop omyosin
modi fying
m sh
at f
li de
he ll
Ġm achin
Ġb if
ul late
Ġh erc
of er
Ġa stro
Ġ8 6
hydroxy cinnamoyl
08 4
rp s
Ġha ir
all ergen
pat ched
Ġglutam ic
lyso phospholipase
opo ietic
Ġamp ullate
oxid ative
cyste in
allat ostatin
Ġmachin ery
5 49
b t
Ġ transp
Ġc ress
Ġd ist
ho loc
os ulf
um on
loc alized
16 2
phosph or
30 7
28 0
ric hed
Ġmy m
Ġcal c
tetra decan
dc n
deoxy cytidine
ole osin
tha le
cir c
fumaryl acetoacetate
Ġplas minogen
hthal mia
Ġchem ot
time less
phag ocytic
jas mon
tetradecan oyltransferase
c ro
d it
f olylpoly
k if
Ġ riken
in sensitive
tor sin
Ġt bx
de form
ce reb
ad ducin
Ġii ib
acyl hydrolase
ron g
ogen e
light less
glyc osylase
methyl malonyl
56 6
phy cocyanin
metallo protease
xyl ose
sphing olipid
som atic
perip heral
thymid ylate
wil ms
sca recrow
glycyl peptide
f xy
k at
r l
Ġ ul
Ġa sc
Ġt ata
is ochor
ce ssed
ucle otide
ma st
60 5
Ġex ten
18 1
mp p
03 1
ali zation
ple i
synap tobrevin
sur feit
dystro brevin
thio adenosine
thymid ine
ni emann
Ġchole sterol
leuco anthocyanidin
umon ji
fxy d
b ody
c risp
p seudouridine
prote c
or hodopsin
on ist
Ġc ll
re xin
Ġb ot
Ġt andem
de x
itochond ria
ulator y
ulin um
18 2
03 2
arg inase
Ġhormone s
neu rexin
pp m
sis ter
Ġep oxide
el inase
omy elinase
Ġli ver
Ġbre ast
Ġapo lipoprotein
homolog ous
helic al
get ative
b h
b ag
d f
e lastase
k r
v w
te nascin
ro bo
en yltransferase
al bumin
Ġm uc
Ġt au
Ġn hr
late nt
Ġco li
induc er
so ic
hydr yl
38 0
int ron
selen ocysteine
nu dc
laden ine
tog ranin
Ġfo ur
Ġtoleran ce
) (
5 70
b lo
h ermansky
r yn
w u
Ġs f
li ce
ck lf
Ġg el
Ġg onad
Ġa rabin
de ah
Ġe c
min or
60 7
Ġ7 3
es cul
hibi tion
25 9
cl uster
lac tos
mid gut
tetrahydro biopterin
Ġperi od
propion yl
Ġstran ded
Ġdyna mic
Ġcalc ineurin
escul entin
f gf
g gy
m w
o end
ri tical
om in
id al
rop in
Ġanti zyme
Ġex clusion
Ġo verex
din in
44 6
Ġglyc an
Ġsulf atase
secre togranin
Ġprote orhodopsin
dm rt
stri atin
Ġfer redoxin
Ġperip lasmic
methylene tetrahydrofolate
m en
Ġs oc
Ġc hymotrypsin
Ġc aspase
Ġc ritical
Ġb rom
Ġg ins
Ġse p
Ġpoly glutam
im al
asc in
24 4
car di
car inic
cyc l
art ment
48 0
pat ch
tw ist
vas oactive
methy ladenosine
ism atase
nc vp
Ġdop amine
Ġgen es
myx ovirus
phosphopantethe inyl
rong yl
Ġasc orbate
Ġpolyglutam ylase
c w
n ormal
p te
se squ
Ġf unctional
it ch
70 7
oc cal
Ġb en
Ġg ap
di phosphomevalonate
qu a
qu est
Ġde fect
nucle ase
my ticin
Ġo varian
Ġal anine
tri phosphatase
Ġtri acylglycerol
Ġwd r
deoxynucle oside
5 48
Ġ1 22
rib oflavin
Ġv ia
ore ceptor
rop ain
mal onyltransferase
09 1
Ġw y
Ġsup er
hydroxy proline
Ġq c
58 9
fruct ofuranosidase
Ġcol ony
antho cyanin
Ġri eske
neurop ilin
ou ti
imm munoglobulin
Ġaed es
Ġbot ulinum
5 38
b ax
Ġa eg
di enoyl
rib ution
Ġn eprilysin
Ġreg ulating
19 2
Ġo ut
26 1
07 4
med i
sulf hydryl
au dal
gan s
but osine
sk ip
Ġgst u
Ġlink ed
Ġchol ine
Ġent ry
Ġwy butosine
c lock
l g
l h
s ome
t lc
v inc
te b
Ġs ix
Ġp c
Ġp he
riz ing
Ġk atanin
Ġh istamine
th r
Ġt cp
Ġe ct
qu inate
Ġn o
acet one
Ġcon fer
Ġw ing
Ġ8 7
26 7
Ġlip ocal
ag outi
pho x
57 9
el mo
val ent
gy bac
Ġste m
Ġmus ashi
propyl malate
gra iled
ace an
Ġessen tial
isome rizing
Ġaeg yp
e ss
j unctional
k bp
Ġm am
um sporozoite
Ġv h
rome ric
Ġhe mb
40 3
es sen
Ġ8 9
100 13
06 3
Ġpre foldin
chor ismate
gli al
Ġmac ropain
ka ur
moti f
fruitf ul
amid o
circ umsporozoite
vinc ulin
essen tial
f ub
k azal
x x
Ġc sp
ti p
Ġf lightless
Ġin hibition
end ocrine
is op
hibi ted
ph en
100 158
syn uclein
den ticle
dis cs
tw in
br uno
gd sl
Ġmeta stasis
tag og
temp orin
microp hthalmia
Ġaegyp ti
6 10
w iskott
Ġc bl
Ġb e
Ġb p
ig n
igh bor
phospho kinase
11 00
mo vement
22 4
tri functional
Ġpyro phosphokinase
Ġolig opeptide
Ġmetalloproteinase s
Ġperme ability
Ġrec ruit
Ġub r
cx xc
Ġtm em
Ġlam tor
ripen ing
Ġdist ribution
Ġdynamic s
kaur ene
Ġrecruit ment
5 29
b rid
c ement
f ascin
j a
j o
p ip
s la
t ox
u ria
w ap
Ġc s
la rization
Ġb ind
Ġb as
Ġg la
end oribonuclease
oly mph
cd y
nit rogen
hom er
Ġtri glyceride
rag ulator
ferenti ally
Ġdop a
acetylgalactos aminide
3 50
p urin
t oglobin
pro hormone
Ġc c
Ġc at
yl d
Ġp al
Ġde sulfur
ap hyl
09 2
Ġdi merization
poly phenol
nit rilase
pp r
enhan ced
glob osa
synap top
Ġar restin
par titioning
Ġcol lagenase
cation ic
ribonucle otide
gran zyme
mei osis
aki rin
Ġproge sterone
Ġasparag ine
Ġspo ke
Ġexten sion
Ġarabin ogalactan
Ġdesulfur ase
i tor
te k
sp lice
ly r
Ġ1 50
Ġ1 16
he sive
oc occal
Ġk rab
de carboxylase
di ckkopf
ab in
Ġinser tion
ca st
cyc ling
gal anin
33 4
tri meric
59 0
57 8
Ġcyclo transferase
Ġed iting
evol ving
knot ted
) (+)-
g ar
h on
l ox
p q
r ator
s ide
se quest
al ity
Ġm ad
oc ent
ig f
em ic
Ġin organic
Ġe vasin
Ġn sa
Ġn sf
me lat
ch i
the ta
23 6
amino tran
24 8
Ġmo bile
inter sectin
28 8
68 0
Ġglyc oside
olig omycin
ef fector
Ġinteg rator
Ġro ad
orn ain
be achin
Ġdiphospho inositol
Ġmar vel
proge stin
pic ornain
rot us
Ġmut ant
Ġtrin ity
rongyl ocent
Ġbind er
melat onin
rongylocent rotus
3 39
5 26
p k
t otoxin
w arf
x b
x aa
Ġ nadph
Ġ argonaute
in hibited
Ġg ata
me ris
lic ed
sor bitol
mal ignant
24 7
met hoxy
gan glioside
sial ic
cyto hesin
Ġglyco hydrolase
phyt ocyanin
phyt anoyl
Ġprim ary
icolin ate
crust acean
Ġest rogen
cytid ylate
thiorib ose
vw fa
Ġconfer ral
tek tin
e se
f urin
h va
i ral
m aturase
t ant
z ic
ro qu
ro ot
pro minin
Ġf uc
sp at
id ogen
con stitutive
Ġb ro
Ġb et
Ġb loc
Ġe lastase
Ġe cdy
me sen
ch k
50 5
60 6
Ġr y
ph f
100 170
Ġal g
syn t
sulfur transferase
dip icolinate
boli sm
cluster in
cycl osome
Ġbloc ker
e bp
f d
i terpene
p en
p ass
r ene
ri olar
Ġf ad
an chor
Ġk in
Ġa dipo
Ġn ck
Ġsec tor
40 5
tp t
Ġ9 8
fac ili
56 5
Ġele gans
transpos ase
Ġep oxidase
bo ut
Ġap oprotein
Ġpar tial
synap sin
trypsin ogen
oxal osuccinate
Ġbre feldin
Ġlic pod
Ġprim ase
unda bout
)(+)- -
Ġlicpod alin
) (+))
0 21
g sh
l sm
m enin
p n
p wwp
Ġ ethylene
Ġ telomere
in hibin
ro om
re m
un iversal
Ġre sid
st aphyl
Ġv ite
transpor tin
50 9
Ġox id
Ġ7 9
Ġcell ular
Ġchrom osomal
hyl lide
glutamyl cystein
fin ose
raf finose
Ġub c
elong in
Ġalk ali
sw s
lak ophilin
propion ate
jasmon ate
teb rate
meris ation
glutamylcystein yltransferase
5 68
en al
en za
trans lin
Ġsub group
Ġg ra
di mer
me g
um enin
Ġla minin
tiv iral
duc tive
Ġ7 7
Ġsecre tagog
Ġ9 5
19 7
26 9
27 9
lys osome
dihydro folate
form ate
aryl alky
Ġap optotic
val yl
ren yltransferase
dihydrooro tate
Ġmed iated
10012 7
mut l
pur atus
opoly galacturonase
Ġpol len
Ġselen ocysteine
Ġhem oglobin
Ġcarbam oyltransferase
demethyl wyosine
ele ment
Ġsecretagog ue
arylalky lamine
4 20
5 28
p m
y lesterase
pro some
Ġc itrate
na r
Ġp ost
Ġb ar
Ġa s
op hy
lip oyl
lip ophorin
my rist
23 1
26 8
27 7
urfac tant
ann ing
49 0
Ġst rongylocentrotus
78 9
nic hon
est rophin
fold ing
flu enza
oste rol
helic idin
van ced
Ġpur puratus
resid ue
b risc
u z
x t
Ġ leukocyte
ra y
Ġc yld
om at
Ġ1 26
yl in
yl glutathione
Ġi cdh
id p
Ġg y
Ġh ctl
Ġac ute
Ġla g
10 89
Ġsp ry
100 135
ca ve
ton g
tri acylglycerol
Ġrp s
ax anthin
sup er
oligos accha
leg um
sg dh
Ġrf x
ima erin
Ġsg dh
pantoth enate
phyl atoxin
) (+)
a uto
b estrophin
c hy
d or
o pe
p tp
p lectin
r yltransferase
at o
uc c
Ġb ound
Ġt x
rib ble
lar gin
us led
50 7
my d
mp n
26 5
glyc emic
ag glutinin
Ġat rx
27 8
Ġ14 7
acetylglucos aminidase
Ġep it
che ckpoint
Ġcytos keleton
Ġneuron s
sk i
Ġcomp artment
para myosin
mus carinic
acetylgalactos amine
Ġkidne y
Ġvite l
m as
m ll
n ithine
t le
t an
Ġ us
pro ductive
Ġs ip
Ġd m
Ġb ub
Ġde form
23 3
ex change
inos uccinate
24 9
glucos aminyl
rp m
55 7
Ġrp l
Ġmul tidrug
chel atase
lacto ylglutathione
chondro itin
homo serine
Ġphe romone
Ġadipo q
c ip
c cdc
d de
f en
l s
ra x
ti fy
Ġf orkhead
Ġd re
Ġre sistant
Ġb a
Ġtrans mi
ore flexin
ma f
rop h
ubiquitin ating
sid oreflexin
hydroxy acid
Ġat rial
fla mm
Ġal le
argin inosuccinate
78 0
78 1
fo ot
chor din
Ġsplice osome
Ġinteg ration
phosphogluc onolactonase
cho lin
sero transferrin
cat helicidin
imin o
Ġmye loid
Ġhemb a
purin ergic
ucc inase
Ġtransmi ssion
b q
c en
c rot
e lic
e osin
r atase
at ypical
Ġs of
Ġm ocs
Ġp os
Ġt pr
Ġe ye
Ġse ed
ste aroyl
100 15
05 3
Ġmethyltransferase s
56 7
Ġam ylase
Ġam idin
fib er
Ġpy d
78 8
def ic
Ġolig oadenylate
Ġprepro peptide
pt ry
bec lin
Ġfar ne
liver din
Ġfo late
Ġana phylatoxin
Ġastro cyte
Ġqc ce
staphyl ococcal
5 30
d ri
f ri
f un
g s
m ind
n sitive
p ore
y lated
Ġc x
le ukemia
Ġb ud
di ment
ap s
Ġ10 4
39 0
Ġat han
28 4
25 7
tel omeric
lyso phospholipid
trip le
Ġli s
ba h
Ġphosphatid yltransferase
fic olin
lympho toxin
bat x
Ġprost aglandin
Ġbif unctional
splice osome
legum ain
5 40
5 35
b on
h ig
n ima
o is
v im
Ġ ral
ra ted
en a
ha e
Ġp ex
id ance
Ġ2 08
co hesin
bi liverdin
rac le
Ġx vi
19 1
iti s
reg ation
Ġhome otic
phy tos
sa ur
rad ical
uro kinase
complement ing
cent r
Ġcd k
hox a
iso propylmalate
Ġle a
ocal bin
Ġran bp
ov ate
Ġgu idance
bute n
nucleob indin
amm ody
sesqu iterpene
facili tated
- +
a bi
d rb
e quilibrative
f n
f bx
n eph
p g
v amp
se lectin
at lastin
ha rvesting
re taining
re qu
ac rosin
Ġf ut
er g
Ġ1 35
ne oend
os uccinase
Ġt vp
Ġan tiviral
phospho tyrosyl
40 8
Ġr homboid
Ġpro grammed
methyl cytosine
ann i
Ġti tin
Ġst ructure
bo la
oxo prostaglandin
neuro kinin
Ġtransduc ing
mat o
pt oglobin
hyal uronate
Ġcomplement ing
Ġcent romere
Ġdevelopment al
adenyl osuccinase
dihydrolipoyl lysine
hemat opoietic
diment ary
neoend orphin
5 20
f orin
Ġ three
Ġ threonylcarbamoyladenosine
ro chelatase
at ter
re active
Ġd h
ho p
ub e
ub lec
Ġp la
Ġp renyltransferase
ol fac
Ġh nrnp
ubiqu ilin
bi ase
40 7
Ġ9 6
Ġo ver
ca ax
fla p
Ġend ohydrolase
sti mulator
otrop hin
Ġy y
Ġha r
cent rosome
66 7
iso leucyl
tnf r
pt s
Ġvir ulence
Ġpigment osa
gr pe
Ġnr dp
Ġru dimentary
Ġgonad otropin
oligosaccha ryltransferase
crot onoyl
5 50
b rac
d ach
Ġ em
Ġc r
Ġg i
is let
st omatin
phospho deoxyribo
acyl ating
cal cin
Ġpro bable
ver in
22 2
ir ing
dehyd ratase
Ġamino hydrolase
cl k
Ġmetallo thionein
fib ulin
glycosyltransferase s
Ġor nithine
Ġgluc uron
cent rin
Ġmal ate
propan oyl
formyl glutathione
pyrid ox
Ġautoantigen ic
tom edin
Ġsuccin yl
lucif erase
flamm atory
olfac tomedin
phosphodeoxyribo aldolase
3 60
d d
k ip
v t
Ġ kelch
ro undabout
Ġs hi
Ġc lock
Ġd im
er yl
ho s
cha nnel
Ġh t
th ump
ad vanced
ma ge
Ġfinger s
poly glutamine
Ġo b
tid yl
thi olase
25 6
cd gsh
Ġ13 2
59 6
Ġst ro
uf en
mut s
plast ocyanin
Ġtetra merisation
pep l
Ġsta ufen
isochor ismatase
3 09
3 18
a vian
c st
l um
p se
Ġs v
re v
al o
sp l
la y
Ġm ind
Ġp op
Ġp rion
uc al
Ġe h
Ġde branching
Ġr h
activ in
ph orin
33 8
34 6
ton ate
Ġhydro pho
steroid ogenic
prost ate
Ġsc avenger
adren odoxin
Ġmeta botropic
oy lated
cysteinyl glycine
phos ducin
Ġathan ogene
ublec ortin
3 24
d et
en olase
ha ptoglobin
al s
ti l
Ġf lowering
et hy
de ubiquitinating
di adenosine
mal ian
gc n
40 4
glyce roporin
hydroxy pyruvate
33 7
acetylmura m
Ġtranscript s
57 7
deoxy cytidylate
neuro beachin
76 1
Ġolig ome
Ġmic rop
oro tidine
Ġmodi fying
gt f
Ġmei otic
qua glyceroporin
ammody tin
Ġstro mal
3 14
5 12
f ha
m atri
v c
Ġ lon
pro cessed
Ġc sol
cte x
ne b
Ġb ur
Ġh h
Ġn he
Ġn umb
vi roporin
ab p
50 4
phospho adenosine
)- (
kine tic
med ium
68 8
por ted
Ġaden ylyl
Ġcar d
wa ter
Ġer bb
az zin
phage al
radi ent
hydroxyacyl glutathione
Ġsal v
taf azzin
Ġcarb onic
Ġmag o
Ġfibro nectin
Ġmat rin
Ġhex akisphosphate
dock ing
3 13
h nrnp
i es
n eprilysin
o kine
Ġs kp
al og
trans glutaminase
Ġg radient
th if
Ġan tag
Ġde s
ma ternal
09 00
my cin
methyl but
mit ofilin
gi al
29 9
sti gial
37 8
38 8
Ġtri phosphohydrolase
geran iol
Ġinduc ing
ax on
az onin
Ġrap amycin
rhamn osyltransferase
Ġsw im
nig rosin
Ġbacte ria
Ġbrom odomain
centr ating
Ġoligome rization
5 37
a ip
f ork
p ri
p ut
p tero
Ġ ketoglutarate
se l
Ġs cle
Ġc cr
sp anning
Ġ1 40
Ġ1 30
Ġb t
Ġb ed
end ro
de sm
Ġe g
Ġse td
och itinase
ot a
ose nsitive
od endro
Ġnucle otidyltransferase
Ġsp liced
actin oporin
fer rochelatase
55 4
sy ne
lav ata
neuro endocrine
Ġpho t
melan ocyte
Ġmethyl malonate
Ġmeta bolism
adam ts
bat tenin
bur p
Ġcho lin
gger ing
Ġtre halose
Ġsuccin yltransferase
holoc y
rem orin
requ iring
5 27
d utp
s on
t aste
in fluenza
Ġf g
Ġ1 60
Ġm an
Ġm itochondria
am e
pe ric
Ġb tg
co ding
im mediate
od in
amin om
poly homeotic
26 4
24 1
car n
methyl crotonoyl
27 4
mit ter
Ġend ocytosis
59 8
59 9
phy co
Ġha p
hep arin
uf m
Ġri o
ble omycin
use d
cystathi onase
cac he
Ġlis terin
Ġfut sch
alo ol
5 13
a dipo
o w
at osis
Ġs tra
en oate
re sistant
Ġd yn
Ġd gcr
un na
trans mitter
con opeptide
ul okinase
Ġa dip
Ġt rp
Ġin active
Ġe lic
ll ing
gluc o
Ġpro hormone
car tilage
28 3
Ġmy d
cop lasmic
Ġcation ic
mono terpene
mat ure
pc na
sn rna
meta xin
Ġte t
Ġthy mu
gran ulin
Ġtrip let
kn ox
Ġsphing omyelinase
pig ment
anten nal
pepsin ogen
pte ridine
cave olin
Ġalle le
ucal cin
s imilarity
ro zoite
Ġd ense
an terior
Ġm rt
70 6
ne w
end opolygalacturonase
Ġde sm
lar val
cal nexin
hydroxy tetrahydrobiopterin
ell in
Ġtranslation al
08 1
35 7
33 2
Ġz ona
58 0
bs d
guan ylyl
Ġme chan
cor por
az ine
Ġphosphorib osyl
fructo kinase
gd t
Ġsam hd
Ġdia blo
Ġcss l
Ġvitel logenin
Ġhydropho bic
+ )
5 25
5 34
g ig
i roqu
r at
Ġ ets
se ma
at u
Ġs srp
Ġc w
Ġre r
oc clu
Ġk ap
Ġb m
ul ocyte
Ġt ryp
Ġin corpor
ia zole
op us
ari ly
acetyl lactos
Ġly tic
100 00
28 5
28 6
28 9
35 9
ith orax
lu sin
55 6
58 8
nt f
acetylglucos amin
per forin
Ġmod ule
Ġorgan izing
apo bec
gli a
Ġdip eptidyl
ka ros
pap ain
arom atase
dic arboxylate
Ġaspart ate
gener ation
Ġfas l
bacte rial
cepha ly
ze axanthin
dia phanous
Ġdeform ylase
Ġincorpor ator
e ro
j h
m if
p artner
r nf
Ġprotein y
Ġs b
ed ia
an ex
Ġre assembly
ami loride
rib ophorin
ad h
Ġl tv
bi otic
60 2
Ġex ocytosis
Ġly mpho
28 7
35 3
Ġad hesive
hex ose
Ġz o
pec anex
sec t
gan ese
Ġha rvesting
complement ary
enoyl cysteine
map k
Ġtransduc in
Ġglob al
vas a
Ġhy brid
Ġretro transposon
cir cadian
Ġmak orin
Ġdetermin er
Ġtt ll
isop renyl
iroqu ois
6 16
c sp
e rate
h ic
m ilk
p lakophilin
y ip
Ġ nan
Ġ ubiquinol
te a
Ġ1 11
Ġ1 23
an p
Ġ2 14
Ġg alact
st ric
Ġl en
bi lin
Ġnucle oti
late ral
Ġly sin
glyce rone
27 3
35 8
34 9
dy s
erythro cytic
rp in
Ġy e
Ġ16 1
Ġform in
cp r
Ġrp f
Ġrho dopsin
Ġcl k
bran ch
diphospho dolichol
Ġguan yl
cru stin
nm ra
Ġtf ii
cup in
fra gile
Ġamidin otransferase
Ġscle rosis
holocy tochrome
cache ctin
adipo kinetic
unna med
acetylglucosamin ephosphotransferase
t fi
ra mp
Ġs in
Ġs ac
om edin
Ġm sh
Ġp ds
con centrating
ul mon
th ine
ide a
cal umenin
26 3
rol og
ric idal
Ġ13 1
np c
ast in
oxo isoval
embry o
cor azonin
Ġphosphorib ohydrolase
Ġpr enyl
Ġphosphatidyl serine
pax illin
gag a
acy lamino
Ġve getative
ution arily
Ġgu statory
nig ro
Ġmix ed
Ġdic arboxylate
odendro cyte
Ġphot olyase
occlu din
ulmon ary
oxoisoval erate
5 39
k le
m dm
n d
n odulin
w ox
w ith
w nt
Ġ ric
Ġs at
la x
Ġ1 14
Ġp sf
Ġp seudouridylate
am idine
70 8
con d
Ġg ga
di ol
di ph
Ġn tp
st ant
Ġv b
ari d
Ġdi rected
ph b
mo use
thi oesterase
Ġphospho tyrosine
34 5
44 3
36 7
Ġloc alization
57 6
geran yltransferase
glucuron idase
cyclo philin
Ġperi dinin
dom inal
evol utionarily
pantoth enoylcysteine
Ġbreak point
myoc ilin
Ġlen gth
diph thine
' (
a quaglyceroporin
c cl
l os
p sa
p lastin
p mei
s z
s cy
v d
v ent
ed back
Ġp ole
Ġg h
Ġg ast
is a
qu e
ubiqu itinase
if i
iti es
hydroxy butyrate
fer ment
Ġ14 1
38 9
vp g
neuro globin
iso aspartyl
glyco genin
umin um
Ġsti mulated
Ġfe edback
Ġth rough
arabin ofuranosidase
Ġnduf af
Ġoverex pressed
matri lin
3 20
3 11
b bf
l atase
n l
n ib
q a
Ġs uccinate
ha d
li d
an cy
70 1
Ġk at
ar k
Ġa pyr
Ġin hibiting
orm ancy
Ġe so
Ġn se
ch imaerin
hsp c
hi pp
Ġcon stant
si len
ip in
Ġex it
Ġx p
to j
04 1
28 2
33 6
Ġmy elin
sen sing
Ġspec ies
pothetic al
phy rin
Ġperox y
line age
sy lated
cu e
Ġap ical
pr enyltransferase
ax is
no wn
toc in
ud t
oste onectin
glycan ase
formyl glycin
osy lated
target ing
moti le
glycerophospho choline
Ġze ste
bacte ricidal
cepha lic
folylpoly glutamate
Ġapyr ase
formylglycin amidine
b w
b und
b ithorax
f cg
h nf
m st
s hc
se quence
Ġc ru
Ġd j
Ġ1 28
na k
Ġp ic
ar h
heat h
de c
Ġn itrogenase
op on
Ġne ighbor
hi pothetical
lic al
lin alool
Ġcy totoxin
Ġhe lical
40 6
ral og
Ġdi acylglycerol
Ġpro protein
24 6
39 6
py ridine
25 4
cd d
do ublecortin
29 6
44 7
fl z
79 0
Ġsperm at
endo peroxide
Ġguan yltransferase
immun e
Ġsn or
Ġmodulator y
Ġbra wh
pd gf
adenylyl sulfate
gener ating
Ġnk x
skip ped
Ġhar bi
Ġshi kimate
Ġtryp tophan
ferment ing
toj anin
5 15
i ve
p sin
p osis
s mooth
s hell
w hite
at g
re ducing
Ġf c
na m
70 2
pe x
Ġ2 20
ss c
Ġin flammatory
di az
pre li
Ġl dl
ot u
inte rac
hydroxy glutarate
68 9
34 7
asp ar
po li
38 6
36 6
bo w
sulfur ylase
hep atic
chor i
ob g
melan in
Ġwa ter
diss ociation
Ġche latase
phosphoribosyl formylglycinamidine
ultra bithorax
ber ine
Ġoc bbf
Ġadren oreceptor
gast ric
Ġglyce rol
Ġproge stin
Ġroad block
acetylmuram idase
isoprenyl cysteine
silen cing
3 26
d erm
e gl
h u
k rab
p rion
p ogo
x a
se g
or phyrin
Ġs tri
sp er
Ġ1 21
he mic
Ġp uf
Ġg rp
Ġa sh
me k
eth yltransferase
60 3
40 2
Ġsp i
23 2
mp v
ulf okine
Ġco ag
100 0
24 3
ort ho
let m
38 5
mon ocyte
form ation
lim ation
ak t
ure ase
hep tonate
sf rs
ory lated
Ġen coding
rec ti
Ġpa ralog
lak oid
Ġtrip le
Ġdouble sex
mar vel
Ġhep aran
Ġprm t
Ġangi ogenesis
cit r
mor sin
osulf ate
Ġgel atinase
Ġresid ent
phytos ulfokine
Ġmicrop lusin
Ġye ast
rolog ical
Ġperoxy genase
3 29
4 22
5 14
g old
s oss
y rin
Ġs urfactant
Ġf an
Ġf emale
Ġ1 15
Ġm in
Ġm ta
Ġm ax
oc ia
ar coma
Ġ2 05
ox anthin
de termin
Ġn ubp
ia s
Ġex portin
ogen ous
kine ctin
35 6
do hydrolase
37 1
Ġdis co
58 7
Ġab h
Ġab ca
syn trophin
Ġ18 5
Ġhydro peroxide
deoxy uridine
deoxy heptonate
dis hevelled
Ġtra ch
ber ry
gran ulocyte
oxid ized
warf arin
Ġcholin ephosphotransferase
5 16
b us
c ut
f ish
m ep
n og
p sp
r ulation
Ġ raf
or pha
Ġs heath
en gulfment
Ġc tong
ran ged
Ġre d
70 5
ar ranged
Ġ2 00
Ġb ic
Ġg ag
Ġt c
Ġin o
ap ical
op hos
ad hesin
mal onic
ur y
acyl phosphatase
ru din
34 4
34 8
ort actin
tri methyltransferase
44 8
Ġ17 3
fib ril
Ġspecific ities
neuro toxin
76 2
nk g
reticul ocalbin
sv mp
Ġhis tidyl
Ġbra my
retro transposon
hydroxyiso butyrate
Ġsw itch
Ġgyp sy
Ġbur st
phyco erythrin
Ġdesm olase
Ġnucleoti dohydrolase
opon tin
hemic entin
ophos min
c lavata
g rain
m ort
s prouty
z er
se ipin
re sc
Ġf os
Ġd cc
li zation
la mbda
ut in
he art
an us
Ġb ag
Ġe gg
ap tin
Ġl uc
Ġanti freeze
nucle ophosmin
60 1
si te
zy g
ull ine
amino transferase
hydroxy prostaglandin
ex tensin
reg ulation
fer ent
ton emal
tr dc
tri carboxylate
38 4
ach rome
micro fibrillar
Ġglut aredoxin
sm d
013 000
Ġha lo
uro tensin
pi e
peri trophin
Ġdif ferent
oxal ate
Ġsc f
inhibitor y
we ight
Ġreduc ed
vas ion
Ġte mp
epididy mal
ultra spi
mannan ase
roug ht
tog yrin
Ġcalp ain
queu osine
aminoadip ate
Ġgy f
put resc
Ġgalact osyltransferase
Ġcoag ulation
citr ulline
putresc ine
5 19
b om
c osine
h orylase
h bs
n os
p seudo
t alin
y er
Ġ et
Ġ tetr
Ġ hypoxia
Ġs on
Ġf b
Ġp en
Ġp rr
Ġi q
Ġ2 30
Ġ2 07
Ġg uf
Ġa k
ce s
Ġe lf
st os
ser rate
acet ase
Ġcon stans
ip orter
Ġx rcc
poly phosphate
thi open
39 5
methyl osome
methyl thiopen
25 1
mb d
sh und
ens is
amp hi
59 7
fib rin
Ġab normal
Ġphosph or
keto acid
zo o
Ġrp ac
66 5
lrr nt
par vin
Ġmal e
iz ure
snare s
aceto acetase
lucif erin
mesen cephalic
tnfr sf
methylthiopen tene
3 69
6 13
c ab
c rp
d g
e ef
g ab
o pressin
t al
ran s
Ġis ac
og raft
Ġn p
toch lorop
Ġhe s
Ġhe art
my ome
Ġx aa
ca ud
fer ric
tr k
sc r
Ġacet ylesterase
58 4
Ġst at
all ograft
ast rin
dop achrome
synap tonemal
rg s
ana morsin
dil ator
aminobuty rate
ber berine
bra ss
Ġgli adin
gam et
fumaryl acetoacetase
development ally
Ġpx ut
tochlorop hyllide
5 23
5 36
n atriuretic
s ine
in n
te le
re f
Ġd nase
er nin
ul us
Ġg a
co t
Ġt sr
em ap
Ġ( (
tic ulate
sor tilin
nucle olin
oti ana
to b
phosph orylated
poly cis
22 00
04 2
Ġu ter
06 50
35 4
Ġphospho enolpyruvate
Ġz im
Ġmy c
37 4
po larization
rid ge
col or
au x
57 4
sm g
Ġ18 4
46 4
dis abled
cytos keleton
sal ic
Ġfib ulin
Ġfib rosis
Ġca ro
tene urin
Ġcarboxy lesterase
sar coplasmic
pig gybac
Ġperip heral
Ġhyper glycemic
ign ed
pyridox ine
pepl omer
poli ovirus
ultraspi racle
caud al
- ,
6 09
c wf
e a
f ull
l mo
n ep
n ine
n cr
o lectin
p uro
s ag
w p
Ġ 02
Ġ oct
ha em
re bp
Ġf gf
sp ig
it o
le x
Ġk aryopherin
ox onase
Ġb ridge
hosp horylase
ul oyl
co um
Ġt ssc
Ġde hydro
Ġde ubiquitinase
me li
ec to
rop horin
mal tase
13 00
ta k
Ġo ec
thi osulfate
Ġ10 7
39 7
39 9
Ġal do
nf u
ric ho
rho ptry
Ġdis hevelled
56 3
rogen ate
cyp ia
Ġsy f
par ticulate
Ġub x
sur f
somat omedin
hepat oma
Ġsu i
ofu sin
dreb rin
Ġnu dc
osyn thase
glucosyl ceramidase
Ġtransp hosphorylase
Ġry anodine
6 15
p cdh
s os
v asp
Ġ tor
Ġ it
te roid
ro nectin
protein ous
ri stem
Ġc osynthase
al yl
Ġf icolin
er min
le rian
Ġm pp
Ġp s
pe llin
hy ury
ul p
Ġt ps
is oform
cy toglobin
Ġpoly posis
im b
ome lan
ab dominal
12 00
oxy tocin
mp s
ph in
ver sion
22 1
Ġ10 5
05 2
68 4
dy mec
red ox
37 6
59 4
Ġribonucleoprotein s
Ġab cg
47 4
trin ucleotide
oro tate
hetero trimeric
apo lipophorin
Ġamp lified
perip lasmic
cinnamo yltransferase
run x
opi omelan
Ġlate ral
Ġsphing omyelin
Ġgeranyl geranyl
Ġacc limation
aq p
dit rans
Ġsep tin
vim entin
Ġsalv age
Ġantag onist
Ġtemp erature
dymec lin
opiomelan ocortin
c ross
g ida
m ynd
p ulmonary
r hd
s no
u lis
Ġ 0
Ġ hydrogenase
or b
Ġs ho
Ġc i
al ded
li mb
li berin
Ġb icarbonate
Ġh u
Ġt ha
Ġt pa
me rozoite
ass igned
ur ing
Ġtransporter s
Ġr q
15 00
Ġdi hydroxy
03 31
atri op
fer uloyl
mul lerian
mac rene
unc top
29 3
Ġsignal ling
Ġst ar
Ġix oderin
fibro in
synap togyrin
zip per
Ġcol d
sub st
Ġna vig
sna il
Ġmono laris
igm v
Ġun iporter
Ġun assigned
Ġmethyl thiotransferase
oxid ation
sw im
farnesyl diphosphate
nip snap
psi i
Ġbacte rial
Ġpal ate
dach shund
alded h
unctop hilin
Ġnavig ator
a rogenate
d cp
h w
p orin
p mr
te lin
ac i
al lo
ut osomal
Ġp no
70 4
70 9
th orax
th rough
hydro carbon
Ġt p
Ġt ar
di ab
Ġan tho
ce c
Ġde adenylation
Ġse ro
Ġac onitate
Ġhom ing
sin ol
Ġcy st
Ġr ub
to di
Ġpeptide s
ex ten
press ing
xyl osidase
78 6
rb l
ram ine
cent romeric
nic otiana
Ġinduc tion
sd r
Ġprepro hormone
melan opsin
uf telin
Ġmar ker
ki ss
Ġzz z
gast rin
Ġcom bs
wing ed
Ġsial o
mort ality
spig gin
meli biase
Ġrq cd
d ros
e ve
f et
g rp
h dc
p id
s co
u ric
se strin
Ġc ep
Ġf ip
sp ar
Ġp almit
70 3
os c
con nector
Ġa zoo
Ġin vasion
Ġn os
im id
inc inn
ari an
50 1
40 1
aden omat
39 2
39 4
methyl thioadenosine
28 00
27 5
mb t
tb x
29 2
dy kinin
tri helix
cl n
47 7
46 6
heli um
Ġ19 2
pr enyl
fruct an
glucan otransferase
sperm ia
77 7
duct one
mat rin
Ġbr hip
104 26
Ġoc ulis
Ġbran ched
thio ester
Ġtre t
vaso dilator
ntp ase
twin filin
Ġbas al
dor sal
Ġeso phageal
nog gin
Ġuter u
Ġazoo spermia
incinn ata
3 15
3 19
a pe
d ke
n ose
s aga
z le
pro moter
Ġs uc
Ġs prouty
ti a
er s
Ġp ak
pe sca
Ġk ish
ol fr
is g
ap c
ap h
Ġla p
ore xin
Ġii ic
Ġcy totoxic
av r
Ġnucle us
onucle otide
27 2
08 0
29 4
Ġlo ad
sc an
sc ute
38 7
47 9
xyl osyltransferase
Ġim ap
66 6
nic astrin
nr k
Ġme is
fin trim
oste o
dm x
arsen ical
lat rophilin
moti lin
Ġerythro blast
Ġtetra merization
ire ductone
protop orphyrin
Ġdep olymerizing
homogentisic ase
deform ylating
synaptop hysin
Ġfuc osyltransferase
fri gida
peric ent
aminom ethyltransferase
cec ropin
Ġsialo phosphoprotein
Ġpalmit oylated
dke yp
pesca dillo
3 17
6 12
6 14
b loc
c incinnata
j n
p terin
t at
v q
y m
z h
in p
se izure
Ġs ch
Ġc ml
Ġd py
ut omerase
Ġm t
os tin
et ine
ox etine
Ġg ef
th ion
Ġa ra
ch h
ty ramine
Ġv d
bi p
ab cc
es tive
16 00
iti ve
inos teroid
55 2
metallo phosphoesterase
ger macrene
Ġap art
per me
Ġolig opeptidase
hetero chromatin
Ġro ot
Ġflu oxetine
onad hesin
Ġen riched
thyro globulin
Ġalternative ly
kap pab
elic itin
hae te
recti fying
) )
) (+)]
0 100
b os
d ormancy
j umonji
n sl
s oc
s ia
y y
y min
te red
ro betaine
Ġs de
ri ce
Ġc av
ac in
Ġre spond
Ġm n
Ġm ec
Ġm aturase
Ġm el
Ġp in
Ġp ed
Ġp cf
am s
Ġi ota
Ġg le
is ition
di uretic
epend ymin
Ġe lectron
qu isition
lo bi
Ġac quisition
ad through
rop o
acyl carnitine
tos yl
mo othelin
dp y
fer ring
25 5
tri okinase
sc myb
49 4
mann oside
36 3
dihydro dipicolinate
Ġep s
el lar
45 4
mi x
dis rup
hep a
Ġanchor ing
oste ri
sr sf
Ġsal t
Ġhm ces
Ġot u
pen icillin
gluco amylase
bund ling
exten ded
4 13
5 24
7 34
f ggy
p ms
Ġ atic
in ing
ro flexin
Ġs iz
ha rpin
re s
om ed
Ġf mn
Ġm w
Ġk c
co ded
Ġt weet
Ġis ocitrate
Ġtrans ition
rib okinase
ma sp
Ġacid uria
us c
Ġcy tidine
Ġcon jug
ral bp
19 00
Ġo v
inter cellular
ir us
35 1
25 2
lan osterol
sulf ide
ring e
29 8
erythro id
met rical
transform ation
olig odendrocyte
class ical
Ġcol on
cyclo diphosphate
Ġna shi
Ġsu pressor
ml h
Ġoc topamine
cdk n
acy anin
tac in
Ġnu de
Ġfibrillar in
plei otropic
mato de
atu erin
fcg r
pie zo
disrup ted
omed ullin
Ġtweet y
5 18
6 17
f es
g land
l rp
l cp
l ung
m orn
n ol
z u
in ver
pro ducing
ra r
ac cessory
ac ireductone
ho blast
Ġ1 34
an c
oc irus
et in
Ġg erm
Ġh gh
is otocin
da pp
vi p
es r
Ġx pd
gp s
methyl guanine
35 5
mit ofusin
galac tokinase
Ġbi le
55 1
mag o
cc ip
sa icar
neuro blastoma
synap se
cop alyl
Ġta o
nod al
adren omedullin
flor al
propion ase
homolog y
pep t
myx ocirus
phosphoribosylaminoimidazole carboxamide
Ġhetero geneous
ppp de
sequest rin
Ġepit helium
cholin ergic
Ġmechan osensitive
interac tor
Ġdihydroxy acetone
Ġrespond er
. .
d la
d entin
g id
g di
h rf
k aryopherin
m add
p bx
v it
Ġs i
Ġf ab
Ġd reb
er gi
un e
ran atuerin
sp la
ve gf
pe y
Ġ2 15
Ġg id
Ġt bk
Ġin tra
de cap
di peptidase
Ġse maphorin
as tic
lip oate
Ġr xr
Ġdi valent
cal sequestrin
ver tebrate
tub erin
27 1
glucos aminyltransferase
25 3
Ġz f
dy e
erythro cru
cl p
Ġj un
38 00
omal tase
Ġst alk
47 5
53 00
metallo peptidase
78 7
vir ulence
hep t
77 5
cor rin
lyso phosphatidylserine
Ġpho to
para oxonase
Ġknot ted
take out
temp erature
aceto acetyl
Ġvas otocin
Ġdim ethyl
uric ase
erythrocru orin
' ),
5 46
c lin
i o
k x
o ver
r pa
s ty
w berry
z im
Ġ ripening
in vertase
pro lycopene
ri cin
ac aspase
he ria
Ġre adthrough
Ġb rg
Ġh ip
Ġt np
ch ch
transp eptidase
rop sin
Ġr gd
tp x
Ġex osomal
18 00
23 00
Ġco hesin
inos inic
ura in
lan to
eryth ropo
Ġlo op
Ġdis c
otrop hic
mon om
choline sterase
Ġ18 0
Ġacetyl glucosaminyltransferase
peri ostin
Ġall orecognition
br d
Ġfe bra
pap ilin
her mes
Ġcond ensin
muc onate
Ġsna ke
dimethy largin
ssen cephaly
bri x
dipht heria
dig estive
Ġcarbam oyl
Ġecdy steroid
dri ving
pri ckle
inosinic ase
erythropo ietin
3 12
b cdna
i karos
k rt
m sp
n dh
r ataxin
s ul
w ound
Ġ olfactory
Ġ tensin
Ġ ypt
re pression
al ba
Ġd d
os up
pe xin
id arian
oc topamine
Ġb ack
co ilin
Ġa ph
Ġis openten
di amine
lo ta
Ġla yer
Ġl hx
Ġhe ct
Ġsp len
Ġr he
cal cy
trop hoblast
ph p
ir f
Ġat l
glucos ide
sulf o
29 1
peptidyl glycine
sc l
58 5
Ġnm d
Ġab l
Ġphosph omutase
su i
45 2
pr ka
oxo acid
phosphorib osyltransferase
phosphorib ulokinase
buty robetaine
ogly coprotein
Ġcyclo philin
Ġtfi ib
der ma
prol inase
Ġsus hi
nif e
fr ataxin
leg hemoglobin
Ġmtor c
go te
0000 00
threonylcarbamoy ladenine
protec tion
fgf r
omin ant
super villin
derm at
ortho denticle
Ġdehydro ascorbate
Ġsero tonin
Ġconjug ation
dapp u
monom ethy
dimethylargin inase
3 30
j anus
j unctophilin
m ms
m terf
n oc
w all
z onadhesin
ac haete
al ternative
al uminum
Ġf p
it al
la urine
na bin
am et
