{"<s>":0,"<pad>":1,"</s>":2,"<unk>":3,"<mask>":4,"!":5,"\"":6,"#":7,"$":8,"%":9,"&":10,"'":11,"(":12,")":13,"*":14,"+":15,",":16,"-":17,".":18,"/":19,"0":20,"1":21,"2":22,"3":23,"4":24,"5":25,"6":26,"7":27,"8":28,"9":29,":":30,";":31,"<":32,"=":33,">":34,"?":35,"@":36,"A":37,"B":38,"C":39,"D":40,"E":41,"F":42,"G":43,"H":44,"I":45,"J":46,"K":47,"L":48,"M":49,"N":50,"O":51,"P":52,"Q":53,"R":54,"S":55,"T":56,"U":57,"V":58,"W":59,"X":60,"Y":61,"Z":62,"[":63,"\\":64,"]":65,"^":66,"_":67,"`":68,"a":69,"b":70,"c":71,"d":72,"e":73,"f":74,"g":75,"h":76,"i":77,"j":78,"k":79,"l":80,"m":81,"n":82,"o":83,"p":84,"q":85,"r":86,"s":87,"t":88,"u":89,"v":90,"w":91,"x":92,"y":93,"z":94,"{":95,"|":96,"}":97,"~":98,"¡":99,"¢":100,"£":101,"¤":102,"¥":103,"¦":104,"§":105,"¨":106,"©":107,"ª":108,"«":109,"¬":110,"®":111,"¯":112,"°":113,"±":114,"²":115,"³":116,"´":117,"µ":118,"¶":119,"·":120,"¸":121,"¹":122,"º":123,"»":124,"¼":125,"½":126,"¾":127,"¿":128,"À":129,"Á":130,"Â":131,"Ã":132,"Ä":133,"Å":134,"Æ":135,"Ç":136,"È":137,"É":138,"Ê":139,"Ë":140,"Ì":141,"Í":142,"Î":143,"Ï":144,"Ð":145,"Ñ":146,"Ò":147,"Ó":148,"Ô":149,"Õ":150,"Ö":151,"×":152,"Ø":153,"Ù":154,"Ú":155,"Û":156,"Ü":157,"Ý":158,"Þ":159,"ß":160,"à":161,"á":162,"â":163,"ã":164,"ä":165,"å":166,"æ":167,"ç":168,"è":169,"é":170,"ê":171,"ë":172,"ì":173,"í":174,"î":175,"ï":176,"ð":177,"ñ":178,"ò":179,"ó":180,"ô":181,"õ":182,"ö":183,"÷":184,"ø":185,"ù":186,"ú":187,"û":188,"ü":189,"ý":190,"þ":191,"ÿ":192,"Ā":193,"ā":194,"Ă":195,"ă":196,"Ą":197,"ą":198,"Ć":199,"ć":200,"Ĉ":201,"ĉ":202,"Ċ":203,"ċ":204,"Č":205,"č":206,"Ď":207,"ď":208,"Đ":209,"đ":210,"Ē":211,"ē":212,"Ĕ":213,"ĕ":214,"Ė":215,"ė":216,"Ę":217,"ę":218,"Ě":219,"ě":220,"Ĝ":221,"ĝ":222,"Ğ":223,"ğ":224,"Ġ":225,"ġ":226,"Ģ":227,"ģ":228,"Ĥ":229,"ĥ":230,"Ħ":231,"ħ":232,"Ĩ":233,"ĩ":234,"Ī":235,"ī":236,"Ĭ":237,"ĭ":238,"Į":239,"į":240,"İ":241,"ı":242,"Ĳ":243,"ĳ":244,"Ĵ":245,"ĵ":246,"Ķ":247,"ķ":248,"ĸ":249,"Ĺ":250,"ĺ":251,"Ļ":252,"ļ":253,"Ľ":254,"ľ":255,"Ŀ":256,"ŀ":257,"Ł":258,"ł":259,"Ń":260,"in":261,"te":262,"ro":263,"pro":264,"prote":265,"protein":266,"Ġprotein":267,"se":268,"ase":269,"at":270,"or":271,"on":272,"ra":273,"Ġs":274,"ri":275,"en":276,"Ġc":277,"ha":278,"re":279,"ac":280,"om":281,"al":282,"ti":283,"Ġf":284,"ing":285,"Ġd":286,"er":287,"un":288,"ho":289,"li":290,"tor":291,"ran":292,"sp":293,"ati":294,"ain":295,"it":296,"ly":297,"la":298,"Ġ1":299,"ve":300,"ep":301,"le":302,"tran":303,"na":304,"cha":305,"ut":306,"he":307,"yl":308,"ub":309,"ative":310,"ed":311,"an":312,"Ġre":313,"Ġm":314,"cte":315,"trans":316,"Ġp":317,"uc":318,"am":319,"70":320,"ke":321,"utative":322,"actor":323,"Ġi":324,"ne":325,"os":326,"putative":327,"Ġfactor":328,"pe":329,"riz":330,"ine":331,"uncha":332,"rized":333,"racte":334,"uncharacte":335,"uncharacterized":336,"id":337,"like":338,"oc":339,"et":340,"Ġk":341,"Ġsub":342,"ar":343,"omain":344,"Ġ2":345,"Ġdomain":346,"con":347,"ox":348,"gen":349,"unit":350,"hy":351,"tain":352,"taining":353,"Ġb":354,"ck":355,"Ġsubunit":356,"erase":357,"ig":358,"hosp":359,"heat":360,"hock":361,"Ġshock":362,"protease":363,"containing":364,"ul":365,"ent":366,"ol":367,"Ġg":368,"Ġ70":369,"hyd":370,"ter":371,"Ġprotease":372,"ted":373,"ss":374,"Ġh":375,"of":376,"ic":377,"th":378,"lon":379,"co":380,"hydro":381,"cep":382,"transf":383,"Ġa":384,"Ġt":385,"ceptor":386,"em":387,"Ġin":388,"end":389,"orm":390,"ind":391,"Ġ3":392,"is":393,"phosp":394,"de":395,"transferase":396,"Ġreceptor":397,"inase":398,"ami":399,"Ġis":400,"amily":401,"da":402,"emb":403,"di":404,"atp":405,"rna":406,"Ġan":407,"inding":408,"pha":409,"Ġtrans":410,"Ġkda":411,"og":412,"pero":413,"epend":414,"ependent":415,"dependent":416,"ce":417,"Ġe":418,"qu":419,"rib":420,"oform":421,"Ġde":422,"Ġisoform":423,"ucle":424,"alpha":425,"cy":426,"yn":427,"ation":428,"tion":429,"rip":430,"lo":431,"Ġkinase":432,"igh":433,"Ġse":434,"Ġac":435,"Ġn":436,"och":437,"Ġdna":438,"me":439,"dna":440,"crip":441,"eta":442,"omp":443,"Ġmemb":444,"oly":445,"ch":446,"perone":447,"epti":448,"tase":449,"hsp":450,"gl":451,"ap":452,"chaperone":453,"Ġ4":454,"genase":455,"Ġsyn":456,"osom":457,"yltransferase":458,"um":459,"Ġdnak":460,"ia":461,"Ġcha":462,"Ġla":463,"ec":464,"binding":465,"Ġfamily":466,"hate":467,"ty":468,"tiv":469,"min":470,"st":471,"cription":472,"Ġv":473,"pre":474,"00":475,"box":476,"op":477,"ore":478,"one":479,"lar":480,"ator":481,"Ġhom":482,"Ġ(":483,"ate":484,"omple":485,"ad":486,"ser":487,"Ġalpha":488,"osomal":489,"phosphate":490,"Ġne":491,"omplex":492,"Ġpoly":493,"tin":494,"tic":495,"lig":496,"im":497,"sin":498,"transp":499,"Ġrib":500,"hi":501,"17":502,"as":503,"Ġl":504,"thase":505,"termin":506,"Ġmember":507,"Ġsynthase":508,"ass":509,"vi":510,"orf":511,"terminal":512,"rane":513,"olog":514,"ubi":515,"cted":516,"Ġ5":517,"ma":518,"Ġtranscription":519,"up":520,"ubiqu":521,"Ġhomolog":522,"duc":523,"ot":524,"iated":525,"Ġii":526,"ociated":527,"Ġacid":528,"transpor":529,"lass":530,"hydrogenase":531,"rop":532,"gly":533,"ond":534,"ose":535,"Ġbeta":536,"eth":537,"Ġ6":538,"ant":539,"ll":540,"Ġclass":541,"bi":542,"Ġcomplex":543,"cdna":544,"Ġchain":545,"Ġanti":546,"lase":547,"lated":548,"od":549,"rial":550,"lic":551,"Ġcore":552,"us":553,"itoch":554,"itochond":555,"ylase":556,"rome":557,"itochondrial":558,"Ġribosomal":559,"gative":560,"Ġphosp":561,"Ġdehydrogenase":562,"negative":563,"ge":564,"coprotein":565,"atase":566,"Ġnef":567,"Ġand":568,"ity":569,"lone":570,"sor":571,"if":572,"eptide":573,"associated":574,"ion":575,"mal":576,"Ġantigen":577,"arbox":578,"idase":579,"Ġclone":580,"family":581,"hc":582,"rion":583,"Ġtranspor":584,"toch":585,"Ġreg":586,"virion":587,"itin":588,"Ġof":589,"ur":590,"tochrome":591,"ductase":592,"10":593,"inger":594,"Ġgly":595,"dicted":596,"predicted":597,"ome":598,"type":599,"mhc":600,"hydrolase":601,"eptid":602,"imi":603,"nucle":604,"fec":605,"lin":606,"Ġto":607,"Ġcy":608,"inc":609,"Ġfinger":610,"ab":611,"ubiquitin":612,"ulator":613,"Ġreductase":614,"glut":615,"acet":616,"lip":617,"20":618,"av":619,"ari":620,"zinc":621,"50":622,"ting":623,"rin":624,"peat":625,"amin":626,"ide":627,"Ġcon":628,"lj":629,"13":630,"hatase":631,"related":632,"imilar":633,"Ġsec":634,"tivity":635,"Ġox":636,"gluc":637,"09":638,"phospho":639,"Ġtransporter":640,"cytochrome":641,"12":642,"Ġmitochondrial":643,"ste":644,"Ġrna":645,"ulin":646,"ific":647,"Ġinfec":648,"Ġinfectivity":649,"Ġnucle":650,"gc":651,"Ġrepeat":652,"Ġty":653,"Ġglycoprotein":654,"ist":655,"Ġlig":656,"Ġsimilar":657,"14":658,"60":659,"onine":660,"beta":661,"Ġhe":662,"Ġbinding":663,"ta":664,"Ġmembrane":665,"Ġregulator":666,"avy":667,"ht":668,"ib":669,"40":670,"oti":671,"meth":672,"ence":673,"oxin":674,"Ġsp":675,"Ġ7":676,"mic":677,"merase":678,"11":679,"ium":680,"ating":681,"rac":682,"quence":683,"nad":684,"Ġsequence":685,"ros":686,"Ġr":687,"ary":688,"ral":689,"Ġpolymerase":690,"oxy":691,"Ġtype":692,"thre":693,"si":694,"Ġw":695,"spec":696,"Ġhydrolase":697,"sid":698,"mall":699,"15":700,"loc":701,"Ġflj":702,"zy":703,"eptidase":704,"Ġvari":705,"acetyl":706,"Ġsecre":707,"late":708,"specific":709,"apsid":710,"zyme":711,"tp":712,"activ":713,"ip":714,"sol":715,"the":716,"ment":717,"threonine":718,"omerase":719,"serine":720,"rich":721,"long":722,"Ġsup":723,"Ġex":724,"carbox":725,"coa":726,"my":727,"es":728,"memb":729,"Ġ8":730,"Ġphosphatase":731,"membrane":732,"hydrox":733,"las":734,"nel":735,"nnel":736,"osyltransferase":737,"acyl":738,"18":739,"Ġchannel":740,"23":741,"Ġdi":742,"onucle":743,"ull":744,"Ġsecreted":745,"enzyme":746,"hibi":747,"inte":748,"arri":749,"igk":750,"arrier":751,"Ġinser":752,"ron":753,"Ġinsert":754,"cell":755,"Ġfull":756,"090":757,")-":758,"hibitor":759,"amma":760,"Ġvariant":761,"450":762,"erfamily":763,"16":764,"cal":765,"ated":766,"rate":767,"Ġx":768,"uk":769,"mp":770,"to":771,"Ġsuperfamily":772,"eog":773,"atpase":774,"xin":775,"oprotein":776,"trop":777,"Ġgro":778,"ulf":779,"tra":780,"tos":781,"rom":782,"peptide":783,"Ġ9":784,"Ġinhibitor":785,"ry":786,"Ġly":787,"Ġcontaining":788,"ogen":789,"03":790,"Ġubiquitin":791,"ru":792,"able":793,"Ġsynthe":794,"19":795,"light":796,"racting":797,"Ġligase":798,"asc":799,"iti":800,"Ġco":801,"heavy":802,"trna":803,"Ġisomerase":804,"),":805,"ula":806,"led":807,"Ġhigh":808,"il":809,"oxygenase":810,"Ġser":811,"small":812,"gp":813,"ighv":814,"Ġsynthetase":815,"ighd":816,"ighj":817,"odor":818,"Ġregulatory":819,"Ġcarrier":820,"Ġpeptide":821,"transcription":822,"epsin":823,"Ġhighly":824,"phosph":825,"lec":826,"poly":827,"Ġoxidase":828,"ii":829,"orin":830,"Ġserine":831,"odorant":832,"igl":833,"ph":834,"amino":835,"sse":836,"ored":837,"licase":838,"Ġo":839,"26":840,"Ġmrna":841,"Ġpolyprotein":842,"aden":843,"uble":844,"Ġpro":845,"tid":846,"wth":847,"glyce":848,"hydroxy":849,"ver":850,"mo":851,"22":852,"actin":853,"Ġch":854,"ell":855,"gene":856,"100":857,"glyc":858,"capsid":859,"Ġvp":860,"ex":861,"30":862,"ular":863,"ca":864,"pa":865,"lob":866,"methyltransferase":867,"rol":868,"Ġcarbox":869,"Ġsubfamily":870,"itiation":871,"cyte":872,"dp":873,"ute":874,"lation":875,"inos":876,"sj":877,"athi":878,"Ġinitiation":879,"Ġtransferase":880,"inone":881,"ono":882,"cium":883,"thi":884,"transmembrane":885,"24":886,"chgc":887,"sjchgc":888,"Ġ10":889,"nal":890,"istone":891,"velo":892,"lyl":893,"glutam":894,"ruc":895,"osome":896,"etal":897,"Ġmo":898,"Ġlip":899,"interacting":900,"nadh":901,"39":902,"athione":903,"Ġcell":904,"tive":905,"rosine":906,"Ġenzyme":907,"ompon":908,"otic":909,"omponent":910,"perox":911,"Ġnuclear":912,"uan":913,"tub":914,"Ġgamma":915,"car":916,"ignal":917,"Ġgtp":918,"py":919,"induc":920,"ag":921,"non":922,"inter":923,"atri":924,"ura":925,"fi":926,"steine":927,"osyl":928,"Ġ[":929,"Ġatpase":930,"longation":931,"osin":932,"envelo":933,"so":934,"nuclear":935,"ved":936,"soluble":937,"envelope":938,"ky":939,"rected":940,"onuclease":941,"Ġtranscrip":942,"ali":943,"reg":944,"ir":945,"04":946,"directed":947,"ath":948,"Ġhelicase":949,"05":950,"terase":951,"ocy":952,"Ġat":953,"proteas":954,"Ġcyc":955,"Ġactiv":956,"otide":957,"fla":958,"ruct":959,"etallo":960,"cyc":961,"proteasome":962,"'-":963,"methyl":964,"pot":965,"ene":966,"Ġq":967,"ubiquinone":968,"ulose":969,"olar":970,"28":971,"27":972,"kine":973,"glycoprotein":974,"fe":975,"Ġtranslation":976,"mitochondrial":977,"Ġu":978,"Ġmoti":979,"ery":980,"fac":981,"kinase":982,"dehyd":983,"Ġdecarbox":984,"Ġspore":985,"ylate":986,"fer":987,"Ġgl":988,"06":989,"gal":990,"vary":991,"tropepsin":992,"cin":993,"retropepsin":994,"ormone":995,"rab":996,"arg":997,"ule":998,"07":999,"itol":1000,"alivary":1001,"Ġcdna":1002,"Ġgrowth":1003,"histone":1004,"atin":1005,"--":1006,"Ġmotif":1007,"atid":1008,"08":1009,"Ġcomponent":1010,"glutathione":1011,"activated":1012,"mul":1013,"otoxin":1014,"glucos":1015,"35":1016,"aryotic":1017,"med":1018,"ukaryotic":1019,"25":1020,"hol":1021,"Ġad":1022,"lan":1023,"ras":1024,"Ġal":1025,"Ġphospho":1026,"sulf":1027,"mb":1028,"mit":1029,"complex":1030,"Ġend":1031,"lorop":1032,"urfac":1033,"hex":1034,"bp":1035,"ann":1036,"din":1037,"spon":1038,"acetylm":1039,"ribosomal":1040,"igkv":1041,"33":1042,"sh":1043,"21":1044,"ris":1045,"igkj":1046,"acetylmura":1047,"and":1048,"Ġheavy":1049,"Ġz":1050,"Ġ11":1051,"amine":1052,"Ġgtpase":1053,"Ġhormone":1054,"urface":1055,"ug":1056,"ring":1057,"leuc":1058,"Ġdecarboxylase":1059,"eukaryotic":1060,"oreduc":1061,"lta":1062,"neu":1063,"oreductase":1064,"conotoxin":1065,"ance":1066,"inositol":1067,"acetylmuramic":1068,"gi":1069,"ens":1070,"idoreductase":1071,"obox":1072,"Ġinte":1073,"peptid":1074,"mac":1075,"rain":1076,"dium":1077,"dehyde":1078,"ten":1079,"carb":1080,"unc":1081,"ith":1082,"68":1083,"lu":1084,"hem":1085,"Ġzinc":1086,"top":1087,"han":1088,"eryth":1089,"assium":1090,"cd":1091,"genome":1092,"34":1093,"uman":1094,"ort":1095,"solute":1096,"nf":1097,"Ġoxidoreductase":1098,"iled":1099,"ton":1100,"tb":1101,"tyrosine":1102,"asp":1103,"do":1104,"Ġti":1105,"jor":1106,"sphosp":1107,"hydr":1108,"sist":1109,"press":1110,"activating":1111,"29":1112,"dy":1113,"Ġhuman":1114,"licing":1115,"inin":1116,"phosphatid":1117,"Ġsalivary":1118,"wd":1119,"leucine":1120,"peptidyl":1121,"tr":1122,"yp":1123,"atty":1124,"coil":1125,"Ġ12":1126,"served":1127,"ible":1128,"ularis":1129,"ryp":1130,"bate":1131,"sistance":1132,"umor":1133,"ural":1134,"phosphatase":1135,"ric":1136,"Ġputative":1137,"Ġnucleotide":1138,"last":1139,"sti":1140,"onooxygenase":1141,"elongation":1142,"tubulin":1143,"galac":1144,"Ġsurface":1145,"opsin":1146,"Ġtranscript":1147,"erin":1148,"ssed":1149,"uanine":1150,"art":1151,"glucose":1152,"Ġregion":1153,"tri":1154,"chan":1155,"opeptidase":1156,"leuk":1157,"Ġmeth":1158,"Ġpolypeptide":1159,"let":1160,"lys":1161,"Ġmy":1162,"Ġbrain":1163,"pec":1164,"orbate":1165,"Ġlo":1166,"01":1167,"red":1168,"pressed":1169,"Ġcra":1170,"ascic":1171,"oyl":1172,"Ġbi":1173,"du":1174,"major":1175,"vari":1176,"erythro":1177,"Ġ13":1178,"pho":1179,"sphosphate":1180,"sen":1181,"esterase":1182,"Ġbox":1183,"Ġgroup":1184,"rp":1185,"calcium":1186,"nit":1187,"Ġtransloc":1188,"Ġcal":1189,"Ġass":1190,"zgc":1191,"ascorbate":1192,"mrna":1193,"Ġiii":1194,"amp":1195,"aca":1196,"55":1197,"adp":1198,"37":1199,"ruv":1200,"erm":1201,"atal":1202,"usion":1203,"Ġpe":1204,"Ġwith":1205,"sc":1206,"prolyl":1207,"49":1208,"met":1209,"lity":1210,"rho":1211,"Ġamino":1212,"mpho":1213,"argin":1214,"Ġdis":1215,"mbly":1216,"69":1217,"Ġacet":1218,"Ġsignal":1219,"sodium":1220,"Ġfascic":1221,"sic":1222,"phosphatidyl":1223,"epim":1224,"epimerase":1225,"Ġexchan":1226,"rug":1227,"ructural":1228,"utase":1229,"Ġresistance":1230,"32":1231,"oglob":1232,"ata":1233,"macaca":1234,"Ġfascicularis":1235,"cl":1236,"Ġpeptidase":1237,"orib":1238,"Ġ14":1239,"59":1240,"Ġlike":1241,"Ġcarboxylase":1242,"Ġlyase":1243,"sec":1244,"Ġsmall":1245,"Ġassociated":1246,"Ġfis":1247,"tidrug":1248,"Ġasse":1249,"mann":1250,"Ġassembly":1251,"ruvate":1252,"cysteine":1253,"Ġmolec":1254,"gamma":1255,"pp":1256,"tetra":1257,"Ġ120":1258,"Ġgp":1259,"osine":1260,"bility":1261,"Ġhome":1262,"lasmic":1263,"lipase":1264,"Ġtransport":1265,"multidrug":1266,"lectin":1267,"Ġmonooxygenase":1268,"link":1269,"arginine":1270,"Ġribonucle":1271,"Ġmetallo":1272,"Ġlight":1273,"oside":1274,"erythrocyte":1275,"receptor":1276,"rr":1277,"po":1278,"inducible":1279,"udp":1280,"mphocyte":1281,"44":1282,"Ġconserved":1283,"Ġmethyltransferase":1284,"acu":1285,"iglv":1286,"sis":1287,"otrop":1288,"iglj":1289,"bable":1290,"Ġy":1291,"Ġj":1292,"atur":1293,"esis":1294,"lac":1295,"leukin":1296,"age":1297,"myb":1298,"ads":1299,"vis":1300,"38":1301,"acuolar":1302,"uron":1303,"ocapsid":1304,"nucleocapsid":1305,"probable":1306,"Ġlov":1307,"iator":1308,"Ġref":1309,"zation":1310,"Ġrefse":1311,"Ġrefseq":1312,"hydroxylase":1313,"02":1314,"alin":1315,"Ġnon":1316,"mag":1317,"ach":1318,"Ġribonucleoprotein":1319,"hydratase":1320,"pressor":1321,"integ":1322,"36":1323,"mon":1324,"rid":1325,"roid":1326,"Ġsap":1327,"Ġgene":1328,"interleukin":1329,"oid":1330,"tage":1331,"anin":1332,"Ġactivator":1333,"odulin":1334,"Ġloc":1335,"tili":1336,"(+":1337,"Ġ17":1338,"oltage":1339,"transfer":1340,"structural":1341,"potassium":1342,"dihydro":1343,"cellular":1344,"58":1345,"Ġef":1346,"Ġnm":1347,"kyrin":1348,"cap":1349,"Ġspec":1350,"pyruvate":1351,"mun":1352,"cle":1353,"56":1354,"sitive":1355,"Ġtranslocase":1356,"mediator":1357,"flav":1358,"Ġam":1359,"copeptide":1360,"atricopeptide":1361,"nap":1362,"micro":1363,"ticle":1364,"sive":1365,"Ġglyc":1366,"Ġcalcium":1367,"Ġele":1368,"hexon":1369,"ous":1370,"iens":1371,"Ġmd":1372,"stem":1373,"cc":1374,"home":1375,"unction":1376,"gtp":1377,"myosin":1378,"onate":1379,"nac":1380,"ytic":1381,"carboxy":1382,"glycerol":1383,"Ġchlorop":1384,"Ġglut":1385,"cer":1386,"fib":1387,"nt":1388,"Ġab":1389,"mgc":1390,"form":1391,"Ġhomo":1392,"atalytic":1393,"glutamate":1394,"Ġsapiens":1395,"jug":1396,"cess":1397,"upled":1398,"Ġlymphocyte":1399,"phosphatidylinositol":1400,"Ġvii":1401,"chol":1402,"omal":1403,"lasma":1404,"col":1405,"low":1406,"gn":1407,"sponsive":1408,"suc":1409,"coiled":1410,"lastic":1411,"Ġpy":1412,"Ġ16":1413,"ulated":1414,"pothe":1415,"feron":1416,"glutinin":1417,"cyclin":1418,"transpos":1419,"ogl":1420,"Ġphosph":1421,"Ġproteinase":1422,"lyase":1423,"Ġdelta":1424,"48":1425,"signal":1426,"aturase":1427,"Ġst":1428,"Ġ15":1429,"set":1430,"herin":1431,"pothetic":1432,"lp":1433,"tilization":1434,"Ġspecific":1435,"47":1436,"phy":1437,"duf":1438,"ribulose":1439,"Ġelement":1440,"Ġutilization":1441,"rox":1442,"ystem":1443,"53":1444,"Ġes":1445,"Ġlar":1446,"fol":1447,"variable":1448,"vision":1449,"vacuolar":1450,"gro":1451,"bisphosphate":1452,"Ġcyclase":1453,"Ġpre":1454,"Ġchrom":1455,"au":1456,"rep":1457,"sion":1458,"syn":1459,"Ġdivision":1460,"atrix":1461,"57":1462,"anti":1463,"ven":1464,"choline":1465,"hypothetic":1466,"len":1467,"sm":1468,"keto":1469,"hom":1470,"fl":1471,"magglutinin":1472,"chain":1473,"pent":1474,"Ġmolecule":1475,"hemagglutinin":1476,"oredoxin":1477,"coat":1478,"acetylglucos":1479,"otransferase":1480,"ition":1481,"rky":1482,"Ġula":1483,"jugating":1484,"por":1485,"Ġform":1486,"013":1487,"Ġperox":1488,"sa":1489,"mitogen":1490,"ocalin":1491,"saturase":1492,"Ġ18":1493,"tach":1494,"Ġep":1495,"thioredoxin":1496,"lysine":1497,"cp":1498,"galactos":1499,"line":1500,"ins":1501,"rogenase":1502,"adherin":1503,"splicing":1504,"aminase":1505,"Ġcatalytic":1506,"omplement":1507,"Ġlarge":1508,"Ġhydro":1509,"ogenesis":1510,"olgi":1511,"tol":1512,"aspart":1513,"Ġhomeobox":1514,"rypsin":1515,"Ġsulf":1516,"ple":1517,"sl":1518,"tachment":1519,"metallo":1520,"aldehyde":1521,"athepsin":1522,"glycosyltransferase":1523,"pan":1524,"enhan":1525,"np":1526,"aa":1527,"ger":1528,"sy":1529,"Ġor":1530,"cogn":1531,"chrom":1532,"induced":1533,"Ġchloroplastic":1534,"mutase":1535,"dap":1536,"46":1537,"acid":1538,"ili":1539,"modulin":1540,"peroxide":1541,"Ġix":1542,"Ġtick":1543,"gated":1544,"ylyl":1545,"023":1546,"hesion":1547,"vesic":1548,"bo":1549,"Ġproteasome":1550,"Ġtri":1551,"heli":1552,"enyl":1553,"Ġgluc":1554,"aminopeptidase":1555,"cognition":1556,"tidine":1557,"lim":1558,"guanine":1559,"interferon":1560,"el":1561,"redoxin":1562,"onin":1563,"pair":1564,"conjugating":1565,"tracellular":1566,"tumor":1567,"Ġrelated":1568,"Ġcyp":1569,"Ġlipocalin":1570,"Ġexchange":1571,"rosis":1572,"Ġactin":1573,"diesterase":1574,"cg":1575,"sponse":1576,"af":1577,"transporting":1578,"gan":1579,"ns":1580,"Ġsor":1581,"com":1582,"xyl":1583,"78":1584,"fatty":1585,"nan":1586,"methi":1587,"su":1588,"Ġlectin":1589,"lagen":1590,"lipid":1591,"Ġtransmembrane":1592,"Ġcytochrome":1593,"glob":1594,"Ġrab":1595,"Ġaden":1596,"Ġ19":1597,"olase":1598,"hl":1599,"zp":1600,"cu":1601,"fo":1602,"51":1603,"onic":1604,"Ġha":1605,"Ġrepair":1606,"Ġtranspos":1607,"tose":1608,"delta":1609,"aryl":1610,"testi":1611,"Ġ25":1612,"responsive":1613,"atibility":1614,"ompatibility":1615,"rb":1616,"dc":1617,"chlorop":1618,"Ġon":1619,"otropic":1620,"Ġcas":1621,"und":1622,"Ġap":1623,"Ġexpressed":1624,"Ġsorting":1625,"all":1626,"31":1627,"Ġviii":1628,"glycerate":1629,"001":1630,"79":1631,"Ġcysteine":1632,"carbam":1633,"wrky":1634,"odomain":1635,"verse":1636,"kf":1637,"ocyte":1638,"itinase":1639,"rad":1640,"oten":1641,"hypothetical":1642,"Ġdismutase":1643,"ak":1644,"isomerase":1645,"aminyltransferase":1646,"methionine":1647,"retin":1648,"mid":1649,"mads":1650,"45":1651,"gf":1652,"pr":1653,"can":1654,"crosis":1655,"toplasmic":1656,"factor":1657,"Ġplasma":1658,"nsor":1659,"Ġcarboxyl":1660,"Ġinteracting":1661,"Ġ26":1662,"calmodulin":1663,"Ġdioxygenase":1664,"gh":1665,"Ġsh":1666,"kfzp":1667,"coenzyme":1668,"ast":1669,"growth":1670,"acetyltransferase":1671,"ct":1672,"ankyrin":1673,"homeobox":1674,"Ġfatty":1675,"uscle":1676,"Ġnecrosis":1677,"Ġpar":1678,"vp":1679,"200":1680,"zo":1681,"Ġelongation":1682,"cathepsin":1683,"hemo":1684,"vesicle":1685,"ite":1686,"peptidase":1687,"uro":1688,"Ġtyrosine":1689,"ram":1690,"ld":1691,"trin":1692,"dop":1693,"Ġester":1694,"Ġ20":1695,"unctional":1696,"Ġdkfzp":1697,"Ġlong":1698,"sette":1699,"oglobin":1700,"Ġcassette":1701,"Ġdesaturase":1702,"arate":1703,"aspartate":1704,"Ġproton":1705,"proteinase":1706,"Ġtranscriptase":1707,"per":1708,"Ġatp":1709,"Ġheat":1710,"Ġopsin":1711,"enhancer":1712,"urin":1713,"ynthe":1714,"thy":1715,"Ġresponse":1716,"sterol":1717,"bin":1718,"atory":1719,"41":1720,"Ġacetyl":1721,"rogen":1722,"Ġacyl":1723,"ethyl":1724,"Ġchaperone":1725,"case":1726,"ucin":1727,"tetr":1728,"secre":1729,"oxo":1730,"Ġvariable":1731,"attachment":1732,"raldehyde":1733,"insulin":1734,"Ġpyro":1735,"fruct":1736,"complement":1737,"ribonuclease":1738,"cone":1739,"Ġtumor":1740,"oyltransferase":1741,"ure":1742,"sensitive":1743,"superoxide":1744,"phosphorib":1745,"Ġsplicing":1746,"osidase":1747,"Ġsubcomplex":1748,"ner":1749,"Ġrich":1750,"amide":1751,"hemokine":1752,"cent":1753,"glucan":1754,"quap":1755,"quaporin":1756,"carboxylic":1757,"tubule":1758,"deoxy":1759,"toll":1760,"olfactor":1761,"olfactory":1762,"52":1763,"domain":1764,"ticul":1765,"Ġligand":1766,"testis":1767,"otin":1768,"rag":1769,"his":1770,"alan":1771,"90":1772,"but":1773,"integrin":1774,"dehydrogenase":1775,"asic":1776,"ker":1777,"orylase":1778,"glyceraldehyde":1779,"gap":1780,"pin":1781,"tetratricopeptide":1782,"regulator":1783,"fusion":1784,"ribosyl":1785,"Ġrp":1786,"kinesin":1787,"gel":1788,"nsory":1789,"mi":1790,"transporter":1791,"tero":1792,"Ġadap":1793,"54":1794,"Ġfam":1795,"ress":1796,"cessing":1797,"silon":1798,"ylyltransferase":1799,"lcone":1800,"mip":1801,"Ġcis":1802,"regulated":1803,"lav":1804,"Ġbios":1805,"osensory":1806,"Ġbiosynthe":1807,"enol":1808,"ost":1809,"blast":1810,"transform":1811,"chalcone":1812,"Ġim":1813,"66":1814,"coupled":1815,"hemosensory":1816,"Ġperoxidase":1817,"Ġadhesion":1818,"itrogenase":1819,"unitz":1820,"nucleoprotein":1821,"itrate":1822,"almit":1823,"lrr":1824,"steroid":1825,"istoc":1826,"den":1827,"istocompatibility":1828,"ling":1829,"Ġrecognition":1830,"dnaj":1831,"carrier":1832,"Ġguanine":1833,"Ġinter":1834,"cyp":1835,"auxin":1836,"hd":1837,"def":1838,"peroxidase":1839,"ridine":1840,"rt":1841,"core":1842,"Ġwnt":1843,"Ġphosphate":1844,"voltage":1845,"002":1846,"stin":1847,"ypeptidase":1848,"Ġdeaminase":1849,"fibro":1850,"80":1851,"succin":1852,"dis":1853,"linking":1854,"neuro":1855,"ill":1856,"Ġ22":1857,"uto":1858,"Ġqfla":1859,"kda":1860,"glycine":1861,"nin":1862,"Ġeth":1863,"collagen":1864,"omy":1865,"avage":1866,"76":1867,"tosis":1868,"hyl":1869,"lor":1870,"sulfur":1871,"Ġaminotransferase":1872,"dinitrogenase":1873,"tel":1874,"sperm":1875,"vir":1876,"tory":1877,"uter":1878,"Ġporin":1879,"fructose":1880,"nein":1881,"ulation":1882,"hep":1883,"tosystem":1884,"accha":1885,"cohol":1886,"Ġimp":1887,"43":1888,"Ġhydratase":1889,"acetylase":1890,"peroxis":1891,"Ġetherase":1892,"expressed":1893,"emp":1894,"linked":1895,"phospholipase":1896,"oglobulin":1897,"hlh":1898,"synap":1899,"dolase":1900,"acylglycerol":1901,"Ġacetyltransferase":1902,"monia":1903,"Ġpot":1904,"nic":1905,"Ġar":1906,"Ġbiosynthesis":1907,"lamin":1908,"Ġiv":1909,"Ġparticle":1910,"bs":1911,"des":1912,"ophi":1913,"est":1914,"Ġdeacetylase":1915,"Ġtransfer":1916,"Ġtranscriptional":1917,"Ġcoiled":1918,"Ġpotassium":1919,"(+)":1920,"val":1921,"munoglobulin":1922,"repeat":1923,"functional":1924,"folate":1925,"pi":1926,"ack":1927,"fector":1928,"nr":1929,"adenosyl":1930,"maltose":1931,"open":1932,"toporin":1933,"Ġmyosin":1934,"fold":1935,"tetrahydro":1936,"aquaporin":1937,"ribosome":1938,"ride":1939,"enti":1940,"nexin":1941,"fuc":1942,"Ġaminopeptidase":1943,"Ġrho":1944,"loride":1945,"chemosensory":1946,"Ġcl":1947,"Ġ28":1948,"cop":1949,"geran":1950,"ypi":1951,"Ġmod":1952,"Ġhs":1953,"glutamyl":1954,"maltoporin":1955,"acypi":1956,"iaa":1957,"proline":1958,"42":1959,"reductase":1960,"ferenti":1961,"ga":1962,"glutamine":1963,"Ġolig":1964,"Ġlipase":1965,"buty":1966,"cytos":1967,"Ġdiphosphate":1968,"Ġinduc":1969,"Ġthe":1970,"angi":1971,"Ġseca":1972,"77":1973,"Ġrut":1974,"Ġdehydratase":1975,"ogluc":1976,"ax":1977,"gy":1978,"nadp":1979,"alanine":1980,"similar":1981,"chor":1982,"olig":1983,"Ġmic":1984,"polyprotein":1985,"lication":1986,"Ġthi":1987,"sterase":1988,"Ġsignaling":1989,"uridine":1990,"rity":1991,"mine":1992,"adenosine":1993,"Ġhslu":1994,"Ġeffector":1995,"cogene":1996,"virus":1997,"Ġgolgi":1998,"(+)-":1999,"less":2000,"ribosylation":2001,"tc":2002,"Ġcar":2003,"ork":2004,"rived":2005,"omeric":2006,"adenylate":2007,"photosystem":2008,"ren":2009,"no":2010,"rg":2011,"ilin":2012,"Ġdomains":2013,"hemoglobin":2014,"optosis":2015,"chitinase":2016,"very":2017,"igma":2018,"sulfate":2019,"Ġixo":2020,"ohydrolase":2021,"reverse":2022,"Ġactivating":2023,"Ġmyb":2024,"rap":2025,"bial":2026,"head":2027,"larity":2028,"ribose":2029,"rosomal":2030,"Ġcation":2031,"Ġ21":2032,"Ġepsilon":2033,"-[":2034,"Ġphosphodiesterase":2035,"Ġvi":2036,"rm":2037,"ferentiation":2038,"ensin":2039,"phenyl":2040,"Ġmuscle":2041,"wa":2042,"Ġlys":2043,"casp":2044,"peptidylprolyl":2045,"89":2046,"Ġarginine":2047,"idin":2048,"matrix":2049,"oma":2050,"almitoyltransferase":2051,"ue":2052,"drome":2053,"Ġsyndrome":2054,"zip":2055,"asing":2056,"region":2057,"guan":2058,"Ġ+":2059,"mn":2060,"oglucan":2061,"zing":2062,"Ġenhancer":2063,"tial":2064,"hyll":2065,"nucleolar":2066,"Ġhistocompatibility":2067,"microbial":2068,"dopsin":2069,"geranyl":2070,"Ġexchanger":2071,"oro":2072,"sorting":2073,"Ġspli":2074,"not":2075,"activator":2076,"phan":2077,"Ġigl":2078,"hyp":2079,"enoyl":2080,"sup":2081,"sf":2082,"peri":2083,"Ġaldolase":2084,"accharide":2085,"olic":2086,"Ġras":2087,"kel":2088,"prost":2089,"mannose":2090,"Ġtransposon":2091,"Ġinterac":2092,"plate":2093,"86":2094,"hetero":2095,"ere":2096,"tetrasp":2097,"toc":2098,"ulfide":2099,"Ġmetalloprotease":2100,"Ġvoltage":2101,"tico":2102,"Ġmul":2103,"Ġlipid":2104,"replicase":2105,"Ġdif":2106,"translation":2107,"Ġsubst":2108,"rh":2109,"cyclic":2110,"ded":2111,"Ġiiia":2112,"Ġcd":2113,"rimid":2114,"ylation":2115,"Ġmetalloproteinase":2116,"ofactor":2117,"tetraspanin":2118,"che":2119,"Ġchemokine":2120,"venom":2121,"oxoacyl":2122,"bran":2123,"flu":2124,"cyan":2125,"acyltransferase":2126,"ogly":2127,"Ġendonuclease":2128,"halo":2129,"Ġoxide":2130,"map":2131,"kelch":2132,"Ġsula":2133,"leasing":2134,"Ġhistone":2135,"bl":2136,"glucosidase":2137,"atic":2138,"Ġiron":2139,"abc":2140,"hox":2141,"Ġcycle":2142,"iso":2143,"vel":2144,"Ġion":2145,"Ġhomology":2146,"ump":2147,"appa":2148,"pyrimid":2149,"lifer":2150,"ethylene":2151,"pat":2152,"Ġsubstrate":2153,"Ġme":2154,"rf":2155,"tokine":2156,"Ġimport":2157,"processing":2158,"Ġlin":2159,"man":2160,"Ġacidic":2161,"llin":2162,"glucuron":2163,"Ġcofactor":2164,"Ġsen":2165,"Ġacyltransferase":2166,"tetrahydrofolate":2167,"dz":2168,"ropeptide":2169,"oglut":2170,"300":2171,"ben":2172,"Ġmatrix":2173,"flavon":2174,"derived":2175,"Ġixodes":2176,"cur":2177,"Ġinner":2178,"iller":2179,"oglutarate":2180,"Ġmucin":2181,"embry":2182,"land":2183,"Ġglutam":2184,"inositi":2185,"mot":2186,"lich":2187,"transloc":2188,"portin":2189,"Ġle":2190,"taxin":2191,"ef":2192,"gic":2193,"cor":2194,"67":2195,"Ġ39":2196,"lichyl":2197,"ida":2198,"Ġorgan":2199,"-(":2200,"cking":2201,"ffi":2202,"dynein":2203,"nadph":2204,"dolichyl":2205,"otensin":2206,"fficking":2207,"btb":2208,"tsa":2209,"Ġsuppressor":2210,"alk":2211,"tx":2212,"calp":2213,"inositide":2214,"oxide":2215,"otid":2216,"orkhead":2217,"lyso":2218,"Ġcoenzyme":2219,"nicotin":2220,"caspase":2221,"lf":2222,"61":2223,"hin":2224,"onyl":2225,"Ġleucine":2226,"uster":2227,"mialdehyde":2228,"Ġsm":2229,"Ġzip":2230,"dopa":2231,"ala":2232,"Ġ24":2233,"Ġdeath":2234,"88":2235,"strin":2236,"trypsin":2237,"class":2238,"lamine":2239,"globulin":2240,"kin":2241,"Ġprote":2242,"geneous":2243,"xylulose":2244,"wi":2245,"helix":2246,"ugar":2247,"120":2248,"sial":2249,"Ġacetylcholine":2250,"Ġnexin":2251,"iate":2252,"sep":2253,"ard":2254,"lact":2255,"Ġglutathione":2256,"bre":2257,"Ġ40":2258,"Ġ23":2259,"andid":2260,"ainte":2261,"Ġoxy":2262,"cr":2263,"Ġfusion":2264,"andidate":2265,"Ġmon":2266,"loop":2267,"Ġsperm":2268,"lr":2269,"aging":2270,"dipeptidyl":2271,"acetylglucosaminyltransferase":2272,"ms":2273,"ial":2274,"Ġfac":2275,"int":2276,"Ġsplice":2277,"hydrase":2278,"Ġer":2279,"Ġsy":2280,"triose":2281,"angiotensin":2282,"az":2283,"wn":2284,"Ġ27":2285,"terp":2286,"nance":2287,"fy":2288,"opo":2289,"outer":2290,"Ġ35":2291,"ticular":2292,"Ġspecificity":2293,"Ġfacili":2294,"Ġphospholipase":2295,"Ġtoxin":2296,"chromosome":2297,"ethylase":2298,"ackaging":2299,"squ":2300,"orph":2301,"mediate":2302,"Ġsol":2303,"nec":2304,"Ġtransduc":2305,"Ġcytoplasmic":2306,"packaging":2307,"Ġbiogenesis":2308,"aintenance":2309,"Ġmaintenance":2310,"Ġinteg":2311,"]-":2312,"Ġreticul":2313,"Ġlocus":2314,"short":2315,"tryp":2316,"Ġcu":2317,"ona":2318,"phagy":2319,"component":2320,"Ġfra":2321,"dip":2322,"Ġso":2323,"Ġmads":2324,"Ġkunitz":2325,"ionotropic":2326,"histidine":2327,"mono":2328,"006":2329,"rhodopsin":2330,"emethylase":2331,"oci":2332,"cyst":2333,"fier":2334,"Ġpore":2335,"lipoprotein":2336,"antigen":2337,"Ġdifferentiation":2338,"salivary":2339,"nucleoside":2340,"cis":2341,"nes":2342,"galact":2343,"ectin":2344,"Ġgland":2345,"nrnp":2346,"ading":2347,"heterogeneous":2348,"aglan":2349,"aglandin":2350,"diphospho":2351,"Ġwd":2352,"Ġqtsa":2353,"par":2354,"Ġcle":2355,"neura":2356,"kinin":2357,"palmitoyltransferase":2358,"Ġcol":2359,"Ġbasic":2360,"forkhead":2361,"tw":2362,"transforming":2363,"imilarity":2364,"ient":2365,"sd":2366,"sub":2367,"carboxylate":2368,"triosephosphate":2369,"rest":2370,"amylase":2371,"utophagy":2372,"98":2373,"gth":2374,"chlorophyll":2375,"quinone":2376,"terpene":2377,"Ġlipoprotein":2378,"dh":2379,"Ġcytos":2380,"Ġimmunoglobulin":2381,"Ġreticulum":2382,"rinogen":2383,"inol":2384,"ody":2385,"Ġanhydrase":2386,"Ġcoupled":2387,"helial":2388,"dl":2389,"ical":2390,"96":2391,"high":2392,"rose":2393,"trip":2394,"oplasmic":2395,"Ġendo":2396,"variant":2397,"pentatricopeptide":2398,"succinate":2399,"160":2400,"Ġmodi":2401,"cursor":2402,"gul":2403,"Ġ30":2404,"enolpyruvate":2405,"releasing":2406,"mye":2407,"Ġcapsid":2408,"edd":2409,"general":2410,"carbamoyl":2411,"hing":2412,"ocarbox":2413,"trol":2414,"defensin":2415,"73":2416,"finger":2417,"ergen":2418,"apo":2419,"Ġribonuclease":2420,"mia":2421,"Ġall":2422,"glyco":2423,"Ġsodium":2424,"oglycan":2425,"transcriptional":2426,"Ġglutamate":2427,"golgi":2428,"Ġoligomeric":2429,"dual":2430,"Ġmicro":2431,"lk":2432,"cinna":2433,"Ġcluster":2434,"ae":2435,"hexosyltransferase":2436,"ovirus":2437,"Ġpump":2438,"caro":2439,"ritin":2440,"Ġfor":2441,"ckstrin":2442,"Ġcleavage":2443,"bhlh":2444,"75":2445,"sal":2446,"endo":2447,"syntaxin":2448,"Ġframe":2449,"arag":2450,"Ġantimicrobial":2451,"oxal":2452,"rosophi":2453,"rosophila":2454,"microtubule":2455,"ostatin":2456,"env":2457,"Ġglob":2458,"cre":2459,"fin":2460,"Ġreading":2461,"tre":2462,"malate":2463,"athrin":2464,"neuramin":2465,"flux":2466,"Ġopen":2467,"hal":2468,"Ġph":2469,"Ġsecretory":2470,"stal":2471,"700":2472,"kelet":2473,"Ġbtb":2474,"hand":2475,"Ġcyclo":2476,"oligos":2477,"caf":2478,"otropin":2479,"chloroplast":2480,"Ġshort":2481,"keletal":2482,"sucrose":2483,"gin":2484,"pansin":2485,"oporin":2486,"prostaglandin":2487,"Ġsimilarity":2488,"toxin":2489,"Ġ29":2490,"Ġoncogene":2491,"acetylglucosamine":2492,"gulonate":2493,"umin":2494,"cadherin":2495,"vertase":2496,"Ġcandidate":2497,"rous":2498,"ensity":2499,"tocadherin":2500,"glucuronosyltransferase":2501,"gli":2502,"gdp":2503,"Ġcg":2504,"Ġanchor":2505,"Ġcytokine":2506,"Ġlim":2507,"length":2508,"expansin":2509,"Ġglycine":2510,"Ġguan":2511,"fibroblast":2512,"zn":2513,"Ġring":2514,"Ġamid":2515,"arf":2516,"carbonic":2517,"phosphogluc":2518,"Ġphosphoprotein":2519,"phosphoenolpyruvate":2520,"ferritin":2521,"prop":2522,"thione":2523,"anth":2524,"phage":2525,"74":2526,"sulfotransferase":2527,"Ġankyrin":2528,"Ġsensitive":2529,"Ġnucleolar":2530,"cytoplasmic":2531,"annexin":2532,"Ġta":2533,"pper":2534,"85":2535,"62":2536,"ud":2537,"Ġdemethylase":2538,"carboxypeptidase":2539,"84":2540,"oac":2541,"Ġefflux":2542,"72":2543,"Ġfib":2544,"br":2545,"Ġli":2546,"dehydro":2547,"rystal":2548,"bf":2549,"Ġsti":2550,"ecdy":2551,"serpin":2552,"cyclo":2553,"110":2554,"Ġtrna":2555,"Ġvesicle":2556,"Ġpata":2557,"ulating":2558,"neuropeptide":2559,"tide":2560,"Ġspe":2561,"peroxisomal":2562,"conserved":2563,"Ġneuron":2564,"hano":2565,"Ġmdtc":2566,"period":2567,"rx":2568,"macro":2569,"pression":2570,"iredoxin":2571,"gram":2572,"radi":2573,"ocyst":2574,"immun":2575,"Ġulaf":2576,"phosphoribulose":2577,"va":2578,"tbc":2579,"65":2580,"integr":2581,"Ġdisulfide":2582,"carbamoylphosphate":2583,"mode":2584,"nate":2585,"dihydrooro":2586,"endopeptidase":2587,"protocadherin":2588,"ullin":2589,"Ġmolecular":2590,"eif":2591,"Ġmdtb":2592,"cch":2593,"Ġ60":2594,"ubiquitinyl":2595,"Ġphosphorylase":2596,"globin":2597,"killer":2598,"Ġzipper":2599,"Ġro":2600,"spond":2601,"nk":2602,"diphosphate":2603,"Ġanion":2604,"phosphodiesterase":2605,"atalase":2606,"combin":2607,"Ġflu":2608,"terin":2609,"casein":2610,"99":2611,"Ġneuro":2612,"genin":2613,"Ġns":2614,"olyb":2615,"ketoacyl":2616,"penton":2617,"kiaa":2618,"velength":2619,"diacylglycerol":2620,"estrogen":2621,"Ġadaptor":2622,"phenylalanine":2623,"calpain":2624,"bcl":2625,"glc":2626,"hydroxysteroid":2627,"poz":2628,"ob":2629,"alcohol":2630,"extracellular":2631,"thionein":2632,"plas":2633,"Ġammonia":2634,"secreted":2635,"Ġallergen":2636,"pf":2637,"71":2638,"epid":2639,"utral":2640,"Ġ41":2641,"Ġoxygenase":2642,"64":2643,"autophagy":2644,"rrm":2645,"63":2646,"exocyst":2647,"oligosaccharide":2648,"mf":2649,"Ġ90":2650,"catalase":2651,"sex":2652,"omer":2653,"tite":2654,"oxoglutarate":2655,"trafficking":2656,"laccase":2657,"Ġmicrotubule":2658,"hanolamine":2659,"throm":2660,"033":2661,"rik":2662,"Ġmann":2663,"galactosaminyltransferase":2664,"duct":2665,"onad":2666,"ocor":2667,"mannosidase":2668,"shut":2669,"rystallin":2670,"+-":2671,"mat":2672,"off":2673,"multi":2674,"surface":2675,"fucosyltransferase":2676,"gu":2677,"Ġrt":2678,"modeling":2679,"shutoff":2680,"Ġper":2681,"phd":2682,"nitrous":2683,"sease":2684,"adenylation":2685,"ired":2686,"Ġcap":2687,"Ġfacilit":2688,"combination":2689,"uccin":2690,"ubiquinol":2691,"Ġphosphorib":2692,"Ġadapter":2693,"tnf":2694,"ducin":2695,"phosphorylase":2696,"omyosin":2697,"novel":2698,"phosphoinositide":2699,"Ġmdta":2700,"Ġfacilitator":2701,"Ġpoten":2702,"otidase":2703,"Ġnup":2704,"phospholipid":2705,"tophan":2706,"lower":2707,"benzo":2708,"tot":2709,"Ġapoptosis":2710,"Ġintermediate":2711,"Ġflav":2712,"Ġglycosyltransferase":2713,"erf":2714,"Ġpotential":2715,"ylating":2716,"aba":2717,"cho":2718,"suppressor":2719,"tro":2720,"act":2721,"asparag":2722,"oxidase":2723,"uke":2724,"ukemia":2725,"nucleotide":2726,"glutaryl":2727,"Ġcoat":2728,"tm":2729,"Ġna":2730,"semialdehyde":2731,"Ġcoactivator":2732,"sk":2733,"sna":2734,"Ġrad":2735,"Ġste":2736,"pc":2737,"uncated":2738,"opeptide":2739,"phase":2740,"db":2741,"ping":2742,"Ġhypothetical":2743,"artite":2744,"Ġacids":2745,"spondin":2746,"oesterase":2747,"osomes":2748,"Ġchromosomes":2749,"mg":2750,"hydroxyacyl":2751,"Ġag":2752,"Ġprecursor":2753,"far":2754,"emal":2755,"Ġspefl":2756,"orn":2757,"Ġcotransporter":2758,"Ġsc":2759,"ocyanin":2760,"arget":2761,"rcg":2762,"pol":2763,"Ġhydroxylase":2764,"Ġcan":2765,"Ġamp":2766,"Ġpho":2767,"phosphoglycerate":2768,"tropin":2769,"centrosomal":2770,"zf":2771,"Ġchromatin":2772,"pyrimidine":2773,"Ġmal":2774,"Ġ32":2775,"hilin":2776,"Ġsystem":2777,"nicotinic":2778,"slc":2779,"hla":2780,"dihydroorotase":2781,"Ġdy":2782,"Ġzn":2783,"oglucanase":2784,"pleckstrin":2785,"genesis":2786,"Ġca":2787,"double":2788,"vin":2789,"Ġtranscarbam":2790,"capping":2791,"Ġprepro":2792,"Ġtranscarbamylase":2793,"arch":2794,"monooxygenase":2795,"ration":2796,"Ġwall":2797,"stro":2798,"Ġvery":2799,"Ġprolifer":2800,"ociation":2801,"sphing":2802,"dioxygenase":2803,"Ġadenylyltransferase":2804,"horin":2805,"Ġodorant":2806,"arly":2807,"Ġ38":2808,"melan":2809,"rylate":2810,"urine":2811,"glucosamine":2812,"metallothionein":2813,"osa":2814,"logenin":2815,"chloride":2816,"ole":2817,"rn":2818,"glcnac":2819,"troponin":2820,"dr":2821,"carbon":2822,"tripartite":2823,"sn":2824,"propan":2825,"Ġmor":2826,"Ġnit":2827,"Ġlinker":2828,"Ġenvelope":2829,"fective":2830,"ba":2831,"cate":2832,"Ġjunction":2833,"eg":2834,"hypox":2835,"Ġalcohol":2836,"Ġembry":2837,"Ġphosphatid":2838,"Ġcuticle":2839,"ther":2840,"point":2841,"Ġcyclin":2842,"ocarboxylate":2843,"Ġhsl":2844,"loid":2845,"methylglutaryl":2846,"tryptophan":2847,"oic":2848,"Ġpolyadenylation":2849,"sialyltransferase":2850,"ory":2851,"reticul":2852,"tional":2853,"inhibitor":2854,"grad":2855,"statory":2856,"Ġdependent":2857,"Ġrep":2858,"Ġpig":2859,"000":2860,"Ġstress":2861,"phe":2862,"tha":2863,"vol":2864,"Ġtlp":2865,"apolipoprotein":2866,"Ġhslv":2867,"tonase":2868,"base":2869,"Ġperme":2870,"repeats":2871,"ana":2872,"flavin":2873,"active":2874,"Ġrec":2875,"cdc":2876,"transient":2877,"halose":2878,"Ġmono":2879,"geo":2880,"guanylate":2881,"ammonia":2882,"0330":2883,"diphosphooligosaccharide":2884,"ketide":2885,"gellar":2886,"mt":2887,"raf":2888,"replication":2889,"Ġcarboxypeptidase":2890,"amyl":2891,"hydrate":2892,"Ġlac":2893,"Ġrtfl":2894,"upf":2895,"94":2896,"Ġtfi":2897,"Ġthioesterase":2898,"fruc":2899,"mr":2900,"importin":2901,"Ġrepressor":2902,"Ġmodifier":2903,"cla":2904,"Ġdo":2905,"phosphotransferase":2906,"kd":2907,"Ġzeta":2908,"Ġpr":2909,"moa":2910,"lysosomal":2911,"nitine":2912,"+/":2913,"stran":2914,"glucanase":2915,"density":2916,"Ġtrypsin":2917,"cytosolic":2918,"Ġglobin":2919,"seu":2920,"Ġleukemia":2921,"Ġcor":2922,"mulating":2923,"keratin":2924,"tene":2925,"hesin":2926,"okinase":2927,"plasma":2928,"Ġ43":2929,"hogenesis":2930,"Ġ42":2931,"Ġcontrol":2932,"112":2933,"ps":2934,"organ":2935,"Ġmu":2936,"nitrogenase":2937,"Ġglucose":2938,"bzip":2939,"Ġabc":2940,"snf":2941,"coatomer":2942,"namin":2943,"endoglucanase":2944,"metalloendopeptidase":2945,"peroxisome":2946,"aredoxin":2947,"adenovirus":2948,"clathrin":2949,"seudo":2950,"93":2951,"sone":2952,"Ġheli":2953,"large":2954,"tropomyosin":2955,"Ġ36":2956,"adenosylmethionine":2957,"cuticular":2958,"ds":2959,"dyn":2960,"Ġkappa":2961,"dil":2962,"cyanide":2963,"fructo":2964,"galactosidase":2965,"Ġreplication":2966,"Ġfi":2967,"ocitrate":2968,"Ġqmoa":2969,"camp":2970,"nucleoporin":2971,"othelial":2972,"Ġexp":2973,"Ġreverse":2974,"Ġtim":2975,"Ġmed":2976,"ched":2977,"Ġcancer":2978,"calc":2979,"Ġtail":2980,"pdz":2981,"we":2982,"Ġsigma":2983,"Ġchloride":2984,"Ġonly":2985,"brom":2986,"Ġ33":2987,"Ġwa":2988,"olin":2989,"sv":2990,"uf":2991,"Ġmutase":2992,"neuron":2993,"galectin":2994,"lesterase":2995,"nectin":2996,"truncated":2997,"Ġsn":2998,"Ġsulfotransferase":2999,"som":3000,"igm":3001,"diss":3002,"Ġhelix":3003,"83":3004,"Ġ45":3005,"ks":3006,"rc":3007,"spi":3008,"endoplasmic":3009,"gpi":3010,"hydrogen":3011,"Ġmodulator":3012,"organic":3013,"114":3014,"molyb":3015,"Ġsite":3016,"basic":3017,"Ġasp":3018,"cytidine":3019,"toene":3020,"',":3021,"bone":3022,"Ġtopo":3023,"Ġmi":3024,"Ġtopoisomerase":3025,"Ġma":3026,"Ġbody":3027,"hib":3028,"Ġnucleoside":3029,"sigma":3030,"omega":3031,"pyr":3032,"lethal":3033,"ogenic":3034,"aminobuty":3035,"flagellar":3036,"dynamin":3037,"integrator":3038,"neuraminidase":3039,"platelet":3040,"citrate":3041,"Ġmit":3042,"Ġinhibitory":3043,"400":3044,"bound":3045,"phosphogluconate":3046,"fic":3047,"gt":3048,"Ġpat":3049,"brain":3050,"Ġup":3051,"copper":3052,"Ġscap":3053,"rite":3054,"cleavage":3055,"homocy":3056,"Ġia":3057,"Ġ31":3058,"solin":3059,"gustatory":3060,"Ġflavoprotein":3061,"Ġdiver":3062,"Ġscapularis":3063,"ceram":3064,"baseplate":3065,"bac":3066,"Ġproteins":3067,"edge":3068,"glucosyltransferase":3069,"Ġexpression":3070,"pt":3071,"Ġwedge":3072,"211":3073,"Ġmet":3074,"Ġdecarboxylating":3075,"Ġmorpho":3076,"113":3077,"Ġcop":3078,"Ġremodeling":3079,"Ġphosphoribosyltransferase":3080,"nbs":3081,"utp":3082,"chitin":3083,"170":3084,"kunitz":3085,"mucin":3086,"Ġen":3087,"eptin":3088,"Ġ34":3089,"tpr":3090,"Ġtransducer":3091,"rrna":3092,"Ġfe":3093,"hydroxybenzo":3094,"Ġsolute":3095,"ithine":3096,"chole":3097,"zole":3098,"moting":3099,"by":3100,"clo":3101,"ally":3102,"trinsic":3103,"stre":3104,"Ġegf":3105,"sity":3106,"hyal":3107,"oribonuclease":3108,"phytoene":3109,"trehalose":3110,"oste":3111,"vitel":3112,"95":3113,"myc":3114,"ssue":3115,"Ġcarboxy":3116,"cing":3117,"Ġwil":3118,"glycan":3119,"Ġdiversity":3120,"muscle":3121,"adin":3122,"Ġ52":3123,"phyrinogen":3124,"ecdysone":3125,"hs":3126,"udin":3127,"mannosyltransferase":3128,"hect":3129,"scent":3130,"Ġpyrophosphate":3131,"Ġinteractor":3132,"resistance":3133,"Ġreduc":3134,"morph":3135,"ermal":3136,"Ġqtra":3137,"septin":3138,"vitellogenin":3139,"92":3140,"lakin":3141,"Ġadp":3142,"Ġchromosome":3143,"97":3144,"selen":3145,"aminyl":3146,"cessory":3147,"thyroid":3148,"oxysterol":3149,"Ġdisease":3150,"forming":3151,"lysin":3152,"Ġtfiid":3153,"crystallin":3154,"flavonone":3155,"Ġsynap":3156,"finity":3157,"nat":3158,"sugar":3159,"umarate":3160,"pect":3161,"dj":3162,"Ġ37":3163,"minal":3164,"Ġstructural":3165,"glutaredoxin":3166,"ineurin":3167,"Ġwe":3168,"10012":3169,"Ġsignalosome":3170,"pel":3171,"Ġactivated":3172,"xy":3173,"Ġpo":3174,"uccinate":3175,"peronin":3176,"agmin":3177,"totagmin":3178,"ound":3179,"antho":3180,"two":3181,"Ġmode":3182,"flavonol":3183,"iron":3184,"Ġintrinsic":3185,"Ġpyrophosphatase":3186,"lowering":3187,"aline":3188,"Ġulae":3189,"Ġcen":3190,"Ġ55":3191,"gelsolin":3192,"chemokine":3193,"elin":3194,"tu":3195,"telomerase":3196,"galacturon":3197,"459":3198,"Ġrnf":3199,"fmn":3200,"ank":3201,"Ġretin":3202,"Ġtransaminase":3203,"phosphosulfate":3204,"Ġdiphosphatase":3205,"paired":3206,"peroxiredoxin":3207,"bx":3208,"cs":3209,"Ġmus":3210,"Ġau":3211,"isocitrate":3212,"Ġextracellular":3213,"Ġbisphosphate":3214,"014":3215,"Ġche":3216,"Ġexonuclease":3217,"iii":3218,"Ġlysosomal":3219,"pet":3220,"dm":3221,"td":3222,"lysozyme":3223,"grammed":3224,"81":3225,"Ġ100":3226,"Ġresponsive":3227,"nucleotidase":3228,"Ġendopeptidase":3229,"tenoid":3230,"ragment":3231,"brand":3232,"lebrand":3233,"Ġwillebrand":3234,"pment":3235,"key":3236,"Ġexport":3237,"Ġ50":3238,"Ġmulti":3239,"Ġvir":3240,"185":3241,"secretory":3242,"gonad":3243,"nod":3244,"Ġun":3245,"Ġtetratricopeptide":3246,"ocortico":3247,"stream":3248,"gm":3249,"imil":3250,"82":3251,"lc":3252,"inyl":3253,"Ġkiaa":3254,"romere":3255,"Ġinducible":3256,"galacturonase":3257,"vas":3258,"imilatory":3259,"inic":3260,"ckpoint":3261,"alkaline":3262,"Ġphosphatidyl":3263,"Ġpigment":3264,"ocal":3265,"ward":3266,"promoting":3267,"iz":3268,"Ġdip":3269,"Ġvacuolar":3270,"Ġinduced":3271,"meta":3272,"seminal":3273,"osis":3274,"Ġte":3275,"rately":3276,"Ġmobility":3277,"prov":3278,"reb":3279,"phosphofructo":3280,"cct":3281,"bumin":3282,"apoptosis":3283,"bifunctional":3284,"uretic":3285,"__":3286,"gef":3287,"Ġhomeodomain":3288,"87":3289,"vl":3290,"polymorph":3291,"propane":3292,"reticulon":3293,"aminobutyric":3294,"polymorphic":3295,"iet":3296,"nu":3297,"Ġnt":3298,"aminidase":3299,"ccr":3300,"Ġpermease":3301,"Ġmoderately":3302,"sus":3303,"Ġccch":3304,"tensin":3305,"sar":3306,"Ġ/":3307,"action":3308,"Ġfragment":3309,"perip":3310,"romone":3311,"Ġhydrocarbon":3312,"oth":3313,"lament":3314,"verting":3315,"Ġfluid":3316,"020":3317,"ets":3318,"claudin":3319,"adip":3320,"cf":3321,"oxic":3322,"ingle":3323,"hymot":3324,"formyl":3325,"bospondin":3326,"be":3327,"Ġcytid":3328,"ocyclo":3329,"hypoxia":3330,"ual":3331,"torage":3332,"Ġax":3333,"umo":3334,"viral":3335,"acetylgalactosaminyltransferase":3336,"thrombospondin":3337,"Ġhydroxy":3338,"rec":3339,"helicase":3340,"Ġdnaj":3341,"hymotrypsin":3342,"ergic":3343,"regulatory":3344,"Ġbhlh":3345,"tyros":3346,"Ġhox":3347,"Ġmac":3348,"onaute":3349,"subunit":3350,"Ġcytidylyltransferase":3351,"Ġunc":3352,"iting":3353,"Ġgdp":3354,"catenin":3355,"Ġcenter":3356,"bd":3357,"kappa":3358,"raxin":3359,"Ġ44":3360,"argonaute":3361,"gtpase":3362,"Ġreaction":3363,"Ġcomp":3364,"homeodomain":3365,"boid":3366,"Ġrecombination":3367,"amage":3368,"Ġbr":3369,"Ġbase":3370,"Ġesterase":3371,"carotenoid":3372,"wc":3373,"Ġactivation":3374,"Ġperi":3375,"xyloglucan":3376,"neuronal":3377,"Ġpath":3378,"Ġintracellular":3379,"indle":3380,"Ġiso":3381,"phenol":3382,"velopment":3383,"homboid":3384,"cytosine":3385,"carnitine":3386,"dx":3387,"imida":3388,"ans":3389,"methy":3390,"comb":3391,"geranylgeranyl":3392,"Ġcollagen":3393,"Ġstorage":3394,"Ġaccessory":3395,"succinyl":3396,"dillo":3397,"Ġcp":3398,"Ġpell":3399,"Ġtriphosphate":3400,"rone":3401,"amase":3402,"Ġnuclease":3403,"drosophila":3404,"Ġskeletal":3405,"ethanolamine":3406,"cys":3407,"cgd":3408,"cryp":3409,"nedd":3410,"Ġsugar":3411,"bisphosp":3412,"aminocyclo":3413,"Ġpreproprotein":3414,"stranded":3415,"Ġmajor":3416,"cm":3417,"transducin":3418,"Ġaf":3419,"aturation":3420,"Ġglucan":3421,"statin":3422,"way":3423,"shi":3424,"alene":3425,"lymphocyte":3426,"leukocyte":3427,"Ġintegral":3428,"Ġlactonase":3429,"ka":3430,"130":3431,"oct":3432,"ect":3433,"145":3434,"Ġprocessing":3435,"469":3436,"onoid":3437,"der":3438,"var":3439,"Ġulag":3440,"omutase":3441,"eph":3442,"glycase":3443,"Ġamidohydrolase":3444,"converting":3445,"Ġdeglycase":3446,"ibb":3447,"bromodomain":3448,"Ġrap":3449,"Ġmaturation":3450,"male":3451,"Ġub":3452,"pax":3453,"bk":3454,"prol":3455,"pou":3456,"porter":3457,"Ġcyclohydrolase":3458,"aminocyclopropane":3459,"etate":3460,"aple":3461,"010":3462,"adap":3463,"Ġaxon":3464,"intra":3465,"ket":3466,"glycogen":3467,"Ġproliferator":3468,"Ġlsm":3469,"adenine":3470,"phosphoribosyl":3471,"ibbere":3472,"ocs":3473,"meriz":3474,"Ġpathway":3475,"olipid":3476,"othe":3477,"Ġattachment":3478,"chromatin":3479,"ornithine":3480,"ascular":3481,"Ġglycosyl":3482,"Ġpyrophosphorylase":3483,"dissimilatory":3484,"gata":3485,"zled":3486,"desaturase":3487,"uren":3488,"Ġwavelength":3489,"500":3490,"mut":3491,"cinnamo":3492,"Ġaminoac":3493,"bltx":3494,"Ġcytosolic":3495,"bet":3496,"para":3497,"foldin":3498,"Ġrecti":3499,"ibberellin":3500,"hormone":3501,"sox":3502,"ader":3503,"Ġfrom":3504,"lactamase":3505,"pur":3506,"ophilin":3507,"Ġmethyl":3508,"sur":3509,"Ġtra":3510,"elong":3511,"gag":3512,"hx":3513,"glu":3514,"ruit":3515,"hypotheticial":3516,"entaple":3517,"olgin":3518,"starch":3519,"lant":3520,"transferrin":3521,"somat":3522,"))-":3523,"rizzled":3524,"moter":3525,"capentaple":3526,"coup":3527,"Ġalk":3528,"thers":3529,"capentaplegic":3530,"cyto":3531,"pathogenesis":3532,"-)-":3533,"ft":3534,"mis":3535,"run":3536,"hcg":3537,"Ġproline":3538,"flowering":3539,"anion":3540,"peroxin":3541,"rxlr":3542,"alli":3543,"Ġfy":3544,"Ġpdz":3545,"aster":3546,"troph":3547,"Ġtranslocator":3548,"hepat":3549,"sulfatase":3550,"undant":3551,"laminin":3552,"Ġmannosyltransferase":3553,"Ġcomplement":3554,"spike":3555,"othelin":3556,"Ġaae":3557,"phosphoprotein":3558,"cryptochrome":3559,"Ġaminoacrylate":3560,"genetic":3561,"caffold":3562,"Ġneutral":3563,"012":3564,"rophin":3565,"Ġdiss":3566,"Ġembryogenesis":3567,"petala":3568,"imidazole":3569,"fad":3570,"mulator":3571,"Ġlow":3572,"squalene":3573,"lipoxygenase":3574,"Ġdiphospho":3575,"Ġendothelial":3576,"smad":3577,"asparagine":3578,"conven":3579,"myeloid":3580,"ye":3581,"lastin":3582,"Ġyip":3583,"macrophage":3584,"bisphosphatase":3585,"intraflagellar":3586,"Ġfyve":3587,"Ġcere":3588,"restin":3589,"Ġ49":3590,"ww":3591,"ucida":3592,"Ġauto":3593,"adren":3594,"018":3595,"programmed":3596,"phytochrome":3597,"conventional":3598,"Ġclp":3599,"Ġmelan":3600,"Ġpellucida":3601,"Ġouter":3602,"Ġmotifs":3603,"amidase":3604,"asis":3605,"Ġsnrnp":3606,"Ġcoa":3607,"polypeptide":3608,"158":3609,"fying":3610,"idy":3611,"Ġ48":3612,"Ġnucleoprotein":3613,"microsomal":3614,"polymerase":3615,"Ġulad":3616,"csa":3617,"kgp":3618,"vascular":3619,"Ġchitinase":3620,"kgpdc":3621,"opi":3622,"107":3623,"hydroxybenzoic":3624,"pyrid":3625,"cortico":3626,"tex":3627,"Ġcadherin":3628,"unfold":3629,"Ġeif":3630,"stimulating":3631,"centromere":3632,"unfoldase":3633,"prolifer":3634,"metalloproteinase":3635,"Ġ54":3636,"spectrin":3637,"Ġpyruvate":3638,"rile":3639,"Ġvdj":3640,"Ġtransposase":3641,"Ġmorphogenetic":3642,"ainst":3643,"cyanidin":3644,"Ġagainst":3645,"sap":3646,"idine":3647,"opoly":3648,"glycosyl":3649,"lactate":3650,"Ġsnrna":3651,"Ġphosphatidylinositol":3652,"ez":3653,"Ġfla":3654,"10018":3655,"flavonoid":3656,"anaphase":3657,"Ġabundant":3658,"Ġcheckpoint":3659,"Ġbre":3660,"abhydrolase":3661,"aspartyl":3662,"riken":3663,"flj":3664,"gr":3665,"oncogene":3666,"Ġadenylate":3667,"translocon":3668,"cullin":3669,"Ġthy":3670,"Ġtarget":3671,"Ġdecapentaplegic":3672,"104":3673,"Ġconopeptide":3674,"333":3675,"gd":3676,"xi":3677,"sero":3678,"Ġsu":3679,"leader":3680,"Ġregulated":3681,"defrin":3682,"ok":3683,"Ġnedd":3684,"108":3685,"Ġrrna":3686,"ria":3687,"itamin":3688,"Ġ46":3689,"synaptotagmin":3690,"izing":3691,"Ġcent":3692,"Ġpent":3693,"locus":3694,"atriuretic":3695,"corticotropin":3696,"igin":3697,"cellulose":3698,"sodefrin":3699,"iod":3700,"madillo":3701,"017":3702,"guanosine":3703,"Ġorganic":3704,"109":3705,"glycin":3706,"Ġsoluble":3707,"epididy":3708,"coupling":3709,"Ġhis":3710,"maphorin":3711,"sushi":3712,"osy":3713,"118":3714,"Ġcarboxykinase":3715,"clone":3716,"aldo":3717,"amous":3718,"cinnam":3719,"pheromone":3720,"bc":3721,"Ġcul":3722,"Ġdrosophila":3723,"coumarate":3724,"Ġ47":3725,"prepro":3726,"group":3727,"retinoic":3728,"Ġionotropic":3729,"Ġendotrans":3730,"rup":3731,"olytic":3732,"hydroxymethyl":3733,"roline":3734,"Ġimmun":3735,"snare":3736,"Ġvirus":3737,"heme":3738,"Ġrepeats":3739,"filin":3740,"mbda":3741,"mothers":3742,"cation":3743,"gibberellin":3744,"Ġmetallopeptidase":3745,"nesyl":3746,"pyrroline":3747,"anthocyanidin":3748,"Ġneu":3749,"aven":3750,"Ġmonocarboxylate":3751,"carotene":3752,"orphyrinogen":3753,"racid":3754,"Ġarrest":3755,"fam":3756,"Ġudp":3757,"orphin":3758,"ile":3759,"rase":3760,"Ġmis":3761,"date":3762,"Ġconvertase":3763,"clusion":3764,"ril":3765,"unconventional":3766,"prolactin":3767,"Ġpa":3768,"ultra":3769,"Ġsulfate":3770,"retinol":3771,"019":3772,"ber":3773,"fa":3774,"Ġhsp":3775,"Ġregulation":3776,"ctd":3777,"015":3778,"ora":3779,"Ġsus":3780,"inducing":3781,"Ġtrim":3782,"pfemp":3783,"mfs":3784,"early":3785,"fas":3786,"rhomboid":3787,"rilase":3788,"Ġtub":3789,"Ġlysine":3790,"titin":3791,"116":3792,"ceramide":3793,"026":3794,"swi":3795,"proton":3796,"Ġpol":3797,"dix":3798,"fat":3799,"pl":3800,"lease":3801,"iae":3802,"acetylcholine":3803,"ferredoxin":3804,"gaba":3805,"kir":3806,"Ġinvertase":3807,"105":3808,"Ġdynein":3809,"bb":3810,"edin":3811,"ester":3812,"trophin":3813,"calcineurin":3814,"ml":3815,"ohydrate":3816,"Ġorf":3817,"Ġmeta":3818,"ulase":3819,"ribonucle":3820,"Ġcytokinesis":3821,"transcrip":3822,"inesterase":3823,"specificity":3824,"carbohydrate":3825,"686":3826,"galactose":3827,"visiae":3828,"dihydrolip":3829,"cinnamoyl":3830,"Ġdissociation":3831,"91":3832,"gran":3833,"Ġlic":3834,"Ġrelease":3835,"oderm":3836,"Ġwrky":3837,"inosine":3838,"glucosylase":3839,"cision":3840,"immunglobulin":3841,"rs":3842,"tata":3843,"regulating":3844,"denum":3845,"copene":3846,"grading":3847,"Ġendotransglucosylase":3848,"dihydroflavonol":3849,"xylan":3850,"Ġcerevisiae":3851,"avenger":3852,"apetala":3853,"kim":3854,"ynuren":3855,"Ġ75":3856,"fefe":3857,"znf":3858,"laden":3859,"adam":3860,"115":3861,"glycoside":3862,"lev":3863,"hmg":3864,"osaminidase":3865,"Ġpromoter":3866,"mus":3867,"Ġ83":3868,"phosphatidylserine":3869,"cn":3870,"tho":3871,"Ġsulfite":3872,"kimate":3873,"Ġib":3874,"polygalacturonase":3875,"Ġcathepsin":3876,"entin":3877,"odine":3878,"sr":3879,"lective":3880,"myelin":3881,"Ġmar":3882,"oacetate":3883,"024":3884,"028":3885,"zona":3886,"oxid":3887,"termination":3888,"lichol":3889,"dolichol":3890,"aran":3891,"nif":3892,"sw":3893,"serum":3894,"lect":3895,"ataxin":3896,"Ġabhd":3897,"seudouridine":3898,"fm":3899,"mkiaa":3900,"anodine":3901,"spermat":3902,"nesium":3903,"Ġautoantigen":3904,"ane":3905,"arrest":3906,"Ġ53":3907,"cold":3908,"farnesyl":3909,"600":3910,"procollagen":3911,"epress":3912,"Ġpolyketide":3913,"lock":3914,"axin":3915,"pap":3916,"ald":3917,"119":3918,"Ġinterferon":3919,"amyloid":3920,"rk":3921,"orter":3922,"lue":3923,"Ġri":3924,"volved":3925,"cul":3926,"nhs":3927,"rha":3928,"hog":3929,"10003":3930,"tonin":3931,"hemocyanin":3932,"cb":3933,"ynd":3934,"threonyl":3935,"galactosyltransferase":3936,"ah":3937,"ross":3938,"Ġribosome":3939,"neural":3940,"brevin":3941,"Ġdipeptidase":3942,"dkey":3943,"enk":3944,"106":3945,"incompatibility":3946,"tivesic":3947,"cuticle":3948,"openten":3949,"Ġviral":3950,"Ġmacro":3951,"tivesicular":3952,"don":3953,"atidate":3954,"diac":3955,"dopterin":3956,"016":3957,"armadillo":3958,"iliary":3959,"plastid":3960,"chymotrypsin":3961,"Ġcdc":3962,"osuccinate":3963,"Ġtrm":3964,"malic":3965,"stinal":3966,"atus":3967,"hane":3968,"aine":3969,"artic":3970,"galactosyl":3971,"match":3972,"sac":3973,"Ġdamage":3974,"Ġinvolved":3975,"ching":3976,"thyro":3977,"epressor":3978,"lit":3979,"ubc":3980,"chaperonin":3981,"cellulase":3982,")-)-":3983,"valonate":3984,"Ġpip":3985,"eptidyl":3986,"135":3987,"Ġvps":3988,"tated":3989,"phosphatidate":3990,"polyadenylate":3991,"peptidoglycan":3992,"disulfide":3993,"monophosphate":3994,"ification":3995,"spir":3996,"endothelin":3997,"Ġglyco":3998,"Ġrutf":3999,"pis":4000,"Ġsa":4001,"Ġaxonemal":4002,"Ġkine":4003,"Ġdevelopment":4004,"artner":4005,"natural":4006,"kre":4007,"saccharide":4008,"Ġcog":4009,"comm":4010,"ynurenine":4011,"histocompatibility":4012,"iver":4013,"snrnp":4014,"tl":4015,"orecognition":4016,"adhesion":4017,"trophic":4018,"xylanase":4019,"spiratory":4020,"tamine":4021,"Ġdefective":4022,"Ġnf":4023,"ticulin":4024,"Ġqora":4025,"epidermal":4026,"bla":4027,"Ġmig":4028,"amosa":4029,"ogaster":4030,"Ġeukaryotic":4031,"stress":4032,"nucleic":4033,"adenyl":4034,"signaling":4035,"blastoma":4036,"denn":4037,"Ġamidotransferase":4038,"ietin":4039,"icar":4040,"cells":4041,"Ġmodulation":4042,"Ġmelanogaster":4043,"Ġcognate":4044,"ki":4045,"Ġhydrolyase":4046,"Ġtransposable":4047,"Ġiva":4048,"150":4049,"Ġoc":4050,"semaphorin":4051,"degrading":4052,"lovl":4053,"Ġiih":4054,"agamous":4055,"Ġzz":4056,"nitric":4057,"Ġinteraction":4058,"Ġran":4059,"selective":4060,"Ġsar":4061,"molybdopterin":4062,"cholesterol":4063,"halin":4064,"lak":4065,"cyste":4066,"ubiquit":4067,"ypical":4068,"ellow":4069,"ble":4070,"Ġsal":4071,"reticulin":4072,"oss":4073,"immunoglobulin":4074,"oxylate":4075,"fibrinogen":4076,"caffe":4077,"Ġcorepressor":4078,"dynactin":4079,"tg":4080,"ract":4081,"lyltransferase":4082,"leucyl":4083,"pectinesterase":4084,"mu":4085,"uronate":4086,"anthine":4087,"clip":4088,"ssion":4089,"branched":4090,"ubiquitous":4091,"Ġselen":4092,"hexosaminidase":4093,"bra":4094,"oli":4095,"Ġmetal":4096,"123":4097,"cdk":4098,"squamosa":4099,"rlk":4100,"Ġnatriuretic":4101,"nitrate":4102,"fibronectin":4103,"117":4104,"mulated":4105,"Ġtransform":4106,"epsilon":4107,"ribosyltransferase":4108,"dead":4109,"prefoldin":4110,"creatic":4111,"epididymis":4112,"bro":4113,"lb":4114,"uv":4115,"inactive":4116,"lycopene":4117,"mei":4118,"Ġ56":4119,"aki":4120,"weet":4121,"lectron":4122,"dn":4123,"Ġthioredoxin":4124,"neutral":4125,"Ġbra":4126,"Ġtrip":4127,"Ġver":4128,"Ġsynthesis":4129,"Ġendoplasmic":4130,"cx":4131,"fc":4132,"Ġmitogen":4133,"ocorticoid":4134,"kh":4135,"tf":4136,"osylase":4137,"etox":4138,"ckle":4139,"Ġexcision":4140,"rabin":4141,"allikre":4142,"Ġpentraxin":4143,"etoxification":4144,"allikrein":4145,"Ġmap":4146,"aminolev":4147,"elle":4148,"Ġproteoglycan":4149,"aminolevulin":4150,"tore":4151,"genic":4152,"Ġlambda":4153,"Ġstimulator":4154,"ging":4155,"Ġtrop":4156,"taf":4157,"erythrin":4158,"pyridoxal":4159,"spermatogenesis":4160,"oy":4161,"ts":4162,"self":4163,"Ġsox":4164,"icator":4165,"ash":4166,"acidic":4167,"eu":4168,"sam":4169,"endosome":4170,"single":4171,"mphom":4172,"lamino":4173,"bec":4174,"hook":4175,"sterone":4176,"Ġspindle":4177,"rged":4178,"Ġmonophosphate":4179,"phosphofructokinase":4180,"elongator":4181,"blue":4182,"uven":4183,"Ġnad":4184,"innexin":4185,"calreticulin":4186,"down":4187,"wavelength":4188,"Ġmultivesicular":4189,"uvenile":4190,"029":4191,"proge":4192,"Ġfar":4193,"ism":4194,"orescent":4195,"trim":4196,"mphoma":4197,"027":4198,"crib":4199,"cru":4200,"Ġaldehyde":4201,"Ġcarb":4202,"hepatocyte":4203,"recep":4204,"Ġmag":4205,"defective":4206,"dif":4207,"Ġactivity":4208,"Ġvon":4209,"153":4210,"nm":4211,"lyzing":4212,"180":4213,"vps":4214,"nodule":4215,"800":4216,"fruit":4217,"obp":4218,"ithelial":4219,"old":4220,"endonuclease":4221,"Ġsemialdehyde":4222,"Ġ65":4223,"ogenti":4224,"trisphosphate":4225,"pd":4226,"vitamin":4227,"Ġcullin":4228,"enkep":4229,"homogenti":4230,"025":4231,"fan":4232,"Ġscaffold":4233,"retro":4234,"Ġdr":4235,"cepti":4236,"Ġribulose":4237,"flor":4238,"Ġguanylyltransferase":4239,"rnase":4240,"rhamn":4241,"Ġrac":4242,"fr":4243,"leptin":4244,"pb":4245,"Ġsocs":4246,"136":4247,"profilin":4248,"enin":4249,"exportin":4250,"Ġadren":4251,"integral":4252,"ridging":4253,"ceptibility":4254,"220":4255,"arom":4256,"indin":4257,"decan":4258,"stans":4259,"nudix":4260,"Ġmismatch":4261,"dge":4262,"frizzled":4263,"metal":4264,"pic":4265,"sbp":4266,"ferm":4267,"thap":4268,"iq":4269,"kynurenine":4270,"arrestin":4271,"coni":4272,"bile":4273,"tochore":4274,"multiple":4275,"dgehog":4276,"tom":4277,"unk":4278,"tern":4279,"independent":4280,"dedicator":4281,"homocysteine":4282,"Ġsusceptibility":4283,"oate":4284,"Ġemp":4285,"charged":4286,"Ġomega":4287,"proto":4288,"rim":4289,"hibitin":4290,"dic":4291,"del":4292,"lipin":4293,"three":4294,"adenylyl":4295,"mannosyl":4296,"alanyl":4297,"(+))":4298,"glycinamide":4299,"050":4300,"oflav":4301,"Ġextr":4302,"coag":4303,"azal":4304,"Ġneuronal":4305,"Ġextrusion":4306,"drg":4307,"gg":4308,"Ġepimerase":4309,"ridy":4310,"Ġkif":4311,"Ġweak":4312,"Ġrectifier":4313,"acylase":4314,"nitrite":4315,"Ġaux":4316,"ephosp":4317,"Ġproduct":4318,"Ġuridy":4319,"androgen":4320,"gliadin":4321,"ductance":4322,"Ġcompound":4323,"tir":4324,"124":4325,"ureid":4326,"her":4327,"atanin":4328,"Ġpurine":4329,"inorganic":4330,"leaf":4331,"arc":4332,"racil":4333,"ddb":4334,"Ġhy":4335,"rophospho":4336,"chin":4337,"acetoacetate":4338,"Ġweakly":4339,"egf":4340,"gre":4341,"pit":4342,"use":4343,"Ġtermination":4344,"rot":4345,"Ġmcm":4346,"isopenten":4347,"death":4348,"Ġpolyphosphate":4349,"ryanodine":4350,"Ġperoxis":4351,"Ġsulfur":4352,"illin":4353,"(+)]":4354,"pisti":4355,"cdp":4356,"slo":4357,"acy":4358,"arsen":4359,"10017":4360,"shikimate":4361,"catalytic":4362,"philin":4363,"rnp":4364,"Ġid":4365,"Ġinward":4366,"glyoxylate":4367,"Ġguanylate":4368,"pii":4369,"llata":4370,"caat":4371,"propyl":4372,"golgin":4373,"Ġcad":4374,"spe":4375,"Ġtom":4376,"Ġnac":4377,"10014":4378,"cribed":4379,"Ġuridylyltransferase":4380,"dol":4381,"Ġretro":4382,"mitotic":4383,"target":4384,"Ġnadh":4385,"ight":4386,"Ġantiporter":4387,"ctp":4388,"ix":4389,"tilisin":4390,"Ġformyltransferase":4391,"embryonic":4392,"cystatin":4393,"respiratory":4394,"Ġmynd":4395,"ica":4396,"rbr":4397,"dom":4398,"Ġcond":4399,"enkephalin":4400,"060":4401,"plast":4402,"acc":4403,"unspecific":4404,"ofu":4405,"hydrolyzing":4406,"dehydration":4407,"scavenger":4408,"monium":4409,"vesicular":4410,"multifunctional":4411,"Ġtrafficking":4412,"bm":4413,"tap":4414,"Ġsir":4415,"anone":4416,"125":4417,"Ġmotor":4418,"Ġruta":4419,"leafy":4420,"kallikrein":4421,"origin":4422,"acp":4423,"Ġtissue":4424,"propion":4425,"Ġddx":4426,"minogen":4427,"040":4428,"022":4429,"kl":4430,"ova":4431,"ped":4432,"Ġtw":4433,"Ġearly":4434,"enhancing":4435,"Ġfibro":4436,"Ġdouble":4437,"Ġqu":4438,"Ġaquaporin":4439,"phot":4440,"four":4441,"fanconi":4442,"hb":4443,"px":4444,"amy":4445,"dyst":4446,"purple":4447,"Ġdbla":4448,"leg":4449,"aaa":4450,"macroglobulin":4451,"tes":4452,"enom":4453,"Ġdetoxification":4454,"Ġkiller":4455,"ensation":4456,"allorecognition":4457,"Ġimmune":4458,"tropic":4459,"Ġrpc":4460,"Ġauxiliary":4461,"nc":4462,"zol":4463,"ocin":4464,"control":4465,"gent":4466,"Ġaaa":4467,"decapping":4468,"140":4469,"Ġ76":4470,"ensing":4471,"lethanolamine":4472,"Ġixostatin":4473,"Ġhacp":4474,"omyelin":4475,"Ġfilament":4476,"pistillata":4477,"cmp":4478,"Ġmtor":4479,"Ġtoxic":4480,"antimicrobial":4481,"phosphoribosy":4482,"response":4483,"oxidoreductase":4484,"Ġvenom":4485,"168":4486,"exosome":4487,"radiol":4488,"doublesex":4489,"stromal":4490,"sphingosine":4491,"Ġnitrilase":4492,"070":4493,"epoxide":4494,"Ġconductance":4495,"126":4496,"dehydrin":4497,"Ġdisintegrin":4498,"Ġmodulating":4499,"breast":4500,"cat":4501,"Ġsam":4502,"149":4503,"Ġxm":4504,"follic":4505,"synthase":4506,"cili":4507,"vio":4508,"gella":4509,"opolysaccharide":4510,"Ġhistidine":4511,"zeta":4512,"Ġcross":4513,"103":4514,"traf":4515,"Ġrod":4516,"pollen":4517,"ectonucle":4518,"Ġlicensing":4519,"toreceptor":4520,"eb":4521,"fus":4522,"ryl":4523,"Ġcub":4524,"otub":4525,"Ġrpn":4526,"ociating":4527,"rd":4528,"Ġcase":4529,"Ġrrm":4530,"Ġlysis":4531,"hydroxyiso":4532,"049":4533,"cds":4534,"opoietin":4535,"selenoprotein":4536,"lat":4537,"estradiol":4538,"rillar":4539,"Ġtesti":4540,"emia":4541,"ularin":4542,"cpg":4543,"opioid":4544,"go":4545,"pvi":4546,"atine":4547,"Ġdrb":4548,"ammonium":4549,"chored":4550,"odorran":4551,"Ġphosphohydrolase":4552,"fyve":4553,"Ġaffinity":4554,"usp":4555,"onit":4556,"epithelial":4557,"Ġanemia":4558,"Ġnip":4559,"associating":4560,"dihydrouridine":4561,"Ġtheta":4562,"cystathi":4563,"ketoglutarate":4564,"mer":4565,"unting":4566,"ofilin":4567,"rophilin":4568,"038":4569,"Ġvertex":4570,"cbf":4571,"dof":4572,"Ġpi":4573,"Ġtr":4574,"Ġtnf":4575,"139":4576,"Ġglutamine":4577,"Ġtrifunctional":4578,"chel":4579,"nector":4580,"Ġflagella":4581,"ubiquitously":4582,"otubularin":4583,"plet":4584,"Ġos":4585,"hodon":4586,"aminoacyl":4587,"Ġcalmodulin":4588,"plethodon":4589,"plethodontid":4590,"prp":4591,"tac":4592,"dystro":4593,"formamide":4594,"Ġpolarity":4595,"urop":4596,"Ġmut":4597,"ositol":4598,"Ġcoq":4599,"aminohydrolase":4600,"thiol":4601,"scp":4602,"affinity":4603,"Ġgenome":4604,"coron":4605,"Ġinositol":4606,"glyoxal":4607,"micos":4608,"Ġsecretion":4609,"hyaluron":4610,"proliferating":4611,"ruppel":4612,"Ġmigration":4613,"dep":4614,"loro":4615,"preg":4616,"128":4617,"Ġrutd":4618,"egg":4619,"lbene":4620,"electron":4621,"gast":4622,"Ġsw":4623,"alact":4624,"tissue":4625,"Ġphd":4626,"Ġby":4627,"Ġapo":4628,"dian":4629,"Ġcells":4630,"mannan":4631,"Ġorganelle":4632,"Ġneuropeptide":4633,"piiia":4634,"odorranain":4635,"ortin":4636,"Ġple":4637,"Ġtranscribed":4638,"Ġproteolipid":4639,"gonadotropin":4640,"ephospho":4641,"isopentenyl":4642,"210":4643,"ced":4644,"clu":4645,"fre":4646,"Ġsnf":4647,"homocyste":4648,"iol":4649,"lea":4650,"Ġpartner":4651,"Ġband":4652,"175":4653,"neurop":4654,"udor":4655,"ctin":4656,"moti":4657,"lympho":4658,"tau":4659,"155":4660,"endoprotease":4661,"Ġneddylation":4662,"Ġcasein":4663,"homocysteinase":4664,"bat":4665,"iv":4666,"Ġapp":4667,"Ġ51":4668,"myo":4669,"monocarboxylate":4670,"urinic":4671,"luc":4672,"ylethanolamine":4673,"Ġbran":4674,"Ġclathrin":4675,"benz":4676,"rbp":4677,"Ġlethal":4678,"Ġpan":4679,"virin":4680,"flavanone":4681,"Ġacetylgalactosaminyltransferase":4682,"coagulation":4683,"untingtin":4684,"733":4685,"kc":4686,"Ġcir":4687,"liver":4688,"Ġiia":4689,"Ġconotoxin":4690,"Ġlyso":4691,"cilia":4692,"onectin":4693,"arm":4694,"apurinic":4695,"Ġhomologue":4696,"glutaminase":4697,"hexokinase":4698,"sarco":4699,"ladenosine":4700,"botropic":4701,"nase":4702,"Ġed":4703,"prohibitin":4704,"Ġpalmitoyltransferase":4705,"Ġprocess":4706,"561":4707,"Ġadenine":4708,"disintegrin":4709,"alkyl":4710,"brca":4711,"ov":4712,"Ġcla":4713,"recombination":4714,"Ġaa":4715,"Ġlate":4716,"Ġpolymerases":4717,"mporter":4718,"phosphatidic":4719,"serotonin":4720,"Ġeta":4721,"roug":4722,"Ġsil":4723,"Ġsdr":4724,"igg":4725,"Ġtract":4726,"Ġdegrad":4727,"polypr":4728,"adenain":4729,"Ġphosphoinositide":4730,"pectin":4731,"butyryl":4732,"Ġinteractive":4733,"patatin":4734,"ving":4735,"chloro":4736,"oplakin":4737,"stilbene":4738,"trio":4739,"Ġthiolase":4740,"halogenase":4741,"fb":4742,"ght":4743,"mar":4744,"sg":4745,"mes":4746,"tag":4747,"039":4748,"pyro":4749,"omycin":4750,"differentiation":4751,"cidin":4752,"hth":4753,"own":4754,"Ġpseudouridine":4755,"thiotransferase":4756,"brev":4757,"dynorphin":4758,"tyrosyl":4759,"ephrin":4760,"fem":4761,"oblastoma":4762,"plant":4763,"anchored":4764,"Ġapyrimid":4765,"umatin":4766,"sting":4767,"istamine":4768,"078":4769,"stimulated":4770,"betaine":4771,"Ġtransformylase":4772,"Ġapyrimidinic":4773,"berin":4774,"kn":4775,"kruppel":4776,"pas":4777,"rub":4778,"sumo":4779,"iga":4780,"stri":4781,"filamin":4782,"Ġmannose":4783,"skp":4784,"muc":4785,"mrp":4786,"oxyn":4787,"007":4788,"102":4789,"nucleosome":4790,"gcr":4791,"florica":4792,"floricaula":4793,"nip":4794,"Ġcamp":4795,"aldolase":4796,"spry":4797,"synthe":4798,"heparan":4799,"fucose":4800,"Ġdehalogenase":4801,"cytokine":4802,"lipopolysaccharide":4803,"133":4804,"127":4805,"cadian":4806,"ocysteine":4807,"cyclase":4808,"unkown":4809,"434":4810,"usine":4811,"148":4812,"hemerythrin":4813,"dopamine":4814,"Ġperoxisomal":4815,"ik":4816,"tog":4817,"Ġfog":4818,"chc":4819,"mooth":4820,"thio":4821,"sensor":4822,"hypusine":4823,"Ġsweet":4824,"Ġig":4825,"178":4826,"hydrolases":4827,"048":4828,"carboxylesterase":4829,"Ġadenosine":4830,"periplakin":4831,"cir":4832,"Ġprp":4833,"Ġiib":4834,"glucocorticoid":4835,"156":4836,"phosphatidylcholine":4837,"formin":4838,"Ġarf":4839,"adenosylhomocysteinase":4840,"adenylosuccinate":4841,"oxynucle":4842,"hr":4843,"Ġif":4844,"111":4845,"Ġerf":4846,"Ġtubulin":4847,"slow":4848,"ement":4849,"Ġ63":4850,"biotin":4851,"fied":4852,"disks":4853,"cytokinin":4854,"mj":4855,"rcc":4856,"von":4857,"Ġra":4858,"Ġce":4859,"Ġnitrate":4860,"olysin":4861,"stasis":4862,"Ġtransporting":4863,"Ġfacilitated":4864,"Ġhydroxymethyltransferase":4865,"fascic":4866,"rigent":4867,"dirigent":4868,"minin":4869,"oxygen":4870,"Ġatypical":4871,"Ġcalp":4872,"aael":4873,"germin":4874,"Ġthiol":4875,"sacsin":4876,"uracil":4877,"Ġve":4878,"Ġdual":4879,"ashi":4880,"illar":4881,"almitoyl":4882,"cchc":4883,"tyrosinase":4884,"transcriptase":4885,"gst":4886,"tgf":4887,"Ġfo":4888,"166":4889,"thymid":4890,"butyrate":4891,"Ġproteolytic":4892,"Ġsymporter":4893,"ternative":4894,"Ġsna":4895,"0000":4896,"tryptamine":4897,"fruitf":4898,"ie":4899,"tcp":4900,"Ġcchc":4901,"ubx":4902,"malonyl":4903,"205":4904,"Ġnucleic":4905,"Ġperoxiredoxin":4906,"Ġzzd":4907,"kb":4908,"Ġth":4909,"itary":4910,"constans":4911,"101":4912,"calponin":4913,"Ġtransduction":4914,"threonylcarbam":4915,"psi":4916,"Ġerythro":4917,"opto":4918,"134":4919,"myotubularin":4920,"oacrylate":4921,"ureidoacrylate":4922,"violet":4923,"glyoxalase":4924,"900":4925,"Ġtetra":4926,"seed":4927,"Ġfast":4928,"Ġhep":4929,"lood":4930,"174":4931,"Ġhem":4932,"Ġrf":4933,"plexin":4934,"rbd":4935,"retinoid":4936,"piwi":4937,"Ġreduction":4938,"Ġmacrophage":4939,"Ġdegradation":4940,"band":4941,"jac":4942,"rilysin":4943,"utrop":4944,"Ġsubtype":4945,"058":4946,"pressin":4947,"chromobox":4948,"Ġrutb":4949,"Ġaaeb":4950,"214":4951,"ey":4952,"sch":4953,"amid":4954,"Ġelong":4955,"meric":4956,"Ġexoribonuclease":4957,"phyt":4958,"immunogenic":4959,"Ġappar":4960,"pra":4961,"Ġbzip":4962,"ult":4963,"Ġarom":4964,"Ġnot":4965,"maxi":4966,"204":4967,"hydroxytryptamine":4968,"Ġapparatus":4969,"crt":4970,"slit":4971,"alamin":4972,"Ġseven":4973,"008":4974,"138":4975,"triphosphate":4976,"sent":4977,"hibiting":4978,"merization":4979,"dihydrolipoyl":4980,"uroporphyrinogen":4981,"Ġenoyl":4982,"halase":4983,"cob":4984,"Ġtm":4985,"137":4986,"495":4987,"Ġglucohydrolase":4988,"Ġmultiple":4989,"coronin":4990,"obate":4991,"nasal":4992,"Ġgli":4993,"polyubiquitin":4994,"stizol":4995,"transposon":4996,"homolog":4997,"chromodomain":4998,"envoplakin":4999,"stizolobate":5000,"ire":5001,"intracellular":5002,"Ġdop":5003,"Ġmab":5004,"ish":5005,"deoxyhypusine":5006,"optotic":5007,"glycerophospho":5008,"Ġtranslocation":5009,"achin":5010,"transferring":5011,"Ġaspart":5012,"adaptor":5013,"Ġmat":5014,"Ġgst":5015,"stonin":5016,"132":5017,"129":5018,"Ġrute":5019,"otidyltransferase":5020,"Ġmonomeric":5021,"Ġneurotrophic":5022,"Ġmalonic":5023,"Ġtargeting":5024,"468":5025,"dreb":5026,"Ġcom":5027,"rani":5028,"ocep":5029,"Ġinclusion":5030,"add":5031,"Ġlog":5032,"036":5033,"magnesium":5034,"spermidine":5035,"Ġbrca":5036,"ephosphotransferase":5037,"dem":5038,"Ġamine":5039,"Ġthrombospondin":5040,"121":5041,"polycomb":5042,"cdh":5043,"translocase":5044,"anthin":5045,"Ġphotoreceptor":5046,"merizing":5047,"onitate":5048,"oceptor":5049,"-/":5050,"teri":5051,"Ġcox":5052,"Ġpurin":5053,"Ġsensor":5054,"sta":5055,"169":5056,"zoite":5057,"wil":5058,"003":5059,"omero":5060,"synaptic":5061,"Ġcondensation":5062,"brevinin":5063,"roin":5064,"147":5065,"Ġ71":5066,"sizing":5067,"gpr":5068,"uronan":5069,"560":5070,"bur":5071,"Ġgrb":5072,"issp":5073,"oplastic":5074,"ima":5075,"Ġhalf":5076,"Ġmiracid":5077,"Ġorganelles":5078,"Ġmiracidial":5079,"fox":5080,"sx":5081,"Ġprim":5082,"Ġtbc":5083,"Ġnu":5084,"146":5085,"lastase":5086,"actinin":5087,"Ġintestinal":5088,"Ġyipf":5089,"synthesizing":5090,"tudor":5091,"Ġdef":5092,"olymerizing":5093,"stitu":5094,"densin":5095,"ecdysteroid":5096,"emale":5097,"akisphosphate":5098,"fp":5099,"hn":5100,"helic":5101,"Ġ57":5102,"cgmp":5103,"coma":5104,"Ġintegrin":5105,"Ġpatch":5106,"aromatic":5107,"Ġtwo":5108,"huntingtin":5109,"uitary":5110,"anoct":5111,"Ġspid":5112,"exonuclease":5113,"sense":5114,"valbumin":5115,"Ġcarcin":5116,"Ġlysosome":5117,"arsenite":5118,"anoctamin":5119,"gra":5120,"004":5121,"vite":5122,"arboxylate":5123,"tenin":5124,"propyltransferase":5125,"Ġfission":5126,"->":5127,"tactin":5128,"Ġsaf":5129,"Ġcho":5130,"Ġfer":5131,"Ġdensity":5132,"leu":5133,"seryl":5134,"098":5135,"acetylgalactos":5136,"phosphatidylethanolamine":5137,"ofuran":5138,"chlororespiratory":5139,"ace":5140,"Ġir":5141,"idi":5142,"star":5143,"maillar":5144,"203":5145,"Ġsphing":5146,"trimethyl":5147,"phototropin":5148,"maillard":5149,"pant":5150,"polyketide":5151,"059":5152,"mediated":5153,"nifh":5154,"ccaat":5155,"fast":5156,"sb":5157,"rex":5158,"Ġconjugating":5159,"phosphopyruvate":5160,"065":5161,"trehalase":5162,"ocortin":5163,"Ġmediator":5164,"Ġsynaptic":5165,"acetylcholinesterase":5166,"ossible":5167,"gam":5168,"ni":5169,"pab":5170,"onuc":5171,"Ġscan":5172,"olact":5173,"Ġspt":5174,"Ġassociation":5175,"nancy":5176,"thym":5177,"translocating":5178,"Ġneurotoxin":5179,"Ġpurinoceptor":5180,"Ġheme":5181,"formyltetrahydrofolate":5182,"pep":5183,"Ġcrystallin":5184,"208":5185,"filament":5186,"Ġatg":5187,"neurom":5188,"dystrophin":5189,"ony":5190,"queu":5191,"Ġndrg":5192,"122":5193,"carbonate":5194,"Ġdown":5195,"eze":5196,"progesterone":5197,"cral":5198,"Ġethanolamine":5199,"athy":5200,"rel":5201,"Ġprm":5202,"Ġ72":5203,"Ġchlorophyll":5204,"notch":5205,"yeast":5206,"Ġadrenergic":5207,"xvi":5208,"Ġfold":5209,"Ġnodulin":5210,"gln":5211,"umaryl":5212,"Ġprost":5213,"rogenic":5214,"molybdenum":5215,"cysteinyl":5216,"omodulin":5217,"Ġbac":5218,"ulo":5219,"009":5220,"exos":5221,"sphingomyelin":5222,"repressor":5223,"Ġplac":5224,"Ġknot":5225,"deoxynucle":5226,"Ġnic":5227,"177":5228,"207":5229,"Ġrrp":5230,"198":5231,"Ġ101":5232,"Ġze":5233,"aspartic":5234,")/":5235,"eh":5236,"ental":5237,"aminide":5238,"Ġhydrolases":5239,"ocytosis":5240,"Ġtil":5241,"retinoblastoma":5242,"Ġnitrite":5243,"freeze":5244,"Ġpax":5245,"Ġserpin":5246,"075":5247,"079":5248,"gras":5249,"ization":5250,"mc":5251,"sca":5252,"arp":5253,"isco":5254,"dihydroxy":5255,"Ġglyce":5256,"Ġxyl":5257,"Ġglycosylase":5258,"folli":5259,"creatine":5260,"Ġweight":5261,"pituitary":5262,"omeronasal":5263,"779":5264,"vomeronasal":5265,"Ġsg":5266,"Ġft":5267,"Ġpp":5268,"ketol":5269,"condensin":5270,"glutaminyl":5271,"Ġproenzyme":5272,"Ġreducto":5273,"223":5274,"440":5275,"lute":5276,"pig":5277,"protop":5278,"Ġreleasing":5279,"Ġhd":5280,"Ġelav":5281,"omevalonate":5282,"phosphomevalonate":5283,"superfamily":5284,"Ġproliferation":5285,"green":5286,"Ġreductoisomerase":5287,"011":5288,"van":5289,"Ġmgc":5290,"rization":5291,"biogenesis":5292,"phosphoserine":5293,"take":5294,"068":5295,"ultraviolet":5296,"aldose":5297,"follicle":5298,"bic":5299,"gem":5300,"kk":5301,"tn":5302,"ution":5303,"Ġsrp":5304,"tical":5305,"imp":5306,"sterile":5307,"Ġglucosyltransferase":5308,"copine":5309,"Ġkinesin":5310,"phosphoribosylamino":5311,"cox":5312,"Ġret":5313,"Ġmak":5314,"netrin":5315,"Ġtu":5316,"506":5317,"037":5318,"senilin":5319,"Ġperip":5320,"ctl":5321,"cinnamyl":5322,"sensory":5323,"jun":5324,"zed":5325,"Ġgen":5326,"row":5327,"atoxin":5328,"Ġcone":5329,"lified":5330,"lane":5331,"eprilysin":5332,"Ġiap":5333,"arin":5334,"disease":5335,"Ġva":5336,"173":5337,"otocin":5338,"Ġconnector":5339,"Ġhex":5340,"polynucleotide":5341,"069":5342,"lysyl":5343,"Ġstimulating":5344,"rectional":5345,"thyrotropin":5346,"idirectional":5347,"aro":5348,"kp":5349,"Ġdia":5350,"Ġsubcomponent":5351,"Ġlrr":5352,"abby":5353,"glucuronate":5354,"cinnamate":5355,"arabin":5356,"gger":5357,"yellow":5358,"Ġank":5359,"206":5360,"088":5361,"pancreatic":5362,"Ġspidroin":5363,"240":5364,"system":5365,"Ġslow":5366,"Ġsumo":5367,"diester":5368,"179":5369,"thaumatin":5370,"Ġupstream":5371,"sate":5372,"hydropho":5373,"176":5374,"bilane":5375,"myocyte":5376,"Ġribonucleotide":5377,"pla":5378,"sant":5379,"yloid":5380,"Ġgu":5381,"precursor":5382,"ophorin":5383,"istal":5384,"Ġ88":5385,"047":5386,"methane":5387,"acetylglucosaminyl":5388,"renin":5389,"translationally":5390,"totoxic":5391,"fication":5392,"pectate":5393,"Ġisozyme":5394,"hydroxymethylbilane":5395,"226":5396,"154":5397,"159":5398,"Ġ80":5399,"056":5400,"arylsulfatase":5401,"plasto":5402,"219":5403,"Ġpsbp":5404,"dimethy":5405,"tosin":5406,"hydroxymethylglutaryl":5407,"risc":5408,"Ġtip":5409,"allata":5410,"Ġstimulatory":5411,"vitell":5412,"orax":5413,"nas":5414,"Ġker":5415,"Ġtat":5416,"myostatin":5417,"ssen":5418,"transformer":5419,"rfamide":5420,"Ġpleckstrin":5421,"Ġcarcinoma":5422,"Ġsafa":5423,"ofuranosidase":5424,"esin":5425,"fumaryl":5426,"okinin":5427,"lish":5428,"uty":5429,"Ġkazal":5430,"Ġdead":5431,"duction":5432,"abl":5433,"157":5434,"Ġ85":5435,"Ġamyloid":5436,"threonylcarbamoy":5437,"gb":5438,"alac":5439,"Ġhi":5440,"Ġpolycomb":5441,"144":5442,"164":5443,"Ġ92":5444,"034":5445,"interlac":5446,"sulfite":5447,"Ġrhogef":5448,"ticopper":5449,"Ġfluorescent":5450,"interlacing":5451,"nop":5452,"snap":5453,"propor":5454,"ritol":5455,"Ġdp":5456,"heral":5457,"Ġmlk":5458,"Ġpur":5459,"gener":5460,"licate":5461,"erythritol":5462,"microglobulin":5463,"Ġcuticular":5464,"vitelline":5465,"bri":5466,"possible":5467,"rve":5468,"Ġplas":5469,"Ġts":5470,"roporin":5471,"Ġ61":5472,"167":5473,"thiamine":5474,"erebp":5475,"Ġmodification":5476,"ocarboxy":5477,"bidirectional":5478,"urid":5479,"lizing":5480,"leep":5481,"oplast":5482,"Ġexo":5483,"hyaluronan":5484,"fusing":5485,"fasciclin":5486,"250":5487,"inizing":5488,"onase":5489,"Ġmolyb":5490,"dipo":5491,"Ġdefic":5492,"start":5493,"Ġiif":5494,"omere":5495,"lipocalin":5496,"131":5497,"Ġphosphotransferase":5498,"nicotinamide":5499,"dipht":5500,"adrenocortico":5501,"pregnancy":5502,"Ġclade":5503,"Ġnotch":5504,"neuromedin":5505,"bmp":5506,"mam":5507,"palmitoyl":5508,"qt":5509,"leran":5510,"Ġsex":5511,"regulin":5512,"cyclotransferase":5513,"Ġsirtu":5514,"Ġmlkm":5515,"evol":5516,"inward":5517,"Ġcbf":5518,"hil":5519,"165":5520,"190":5521,"hepcidin":5522,"Ġmedium":5523,"Ġglucanohydrolase":5524,"ketolase":5525,"wf":5526,"rosin":5527,"Ġsta":5528,"kele":5529,"Ġhcha":5530,"hip":5531,"188":5532,"239":5533,"Ġcyclic":5534,"Ġnonsense":5535,"angiopoietin":5536,"rfa":5537,"phenoloxidase":5538,"Ġmapk":5539,"Ġnicotin":5540,"212":5541,"Ġdc":5542,"Ġhmg":5543,"Ġderived":5544,"oplas":5545,"Ġ58":5546,"Ġproge":5547,"somatostatin":5548,"Ġaaea":5549,"grin":5550,"xr":5551,"Ġkctd":5552,"Ġtre":5553,"chond":5554,"Ġ66":5555,"Ġ68":5556,"Ġobp":5557,"Ġmotility":5558,"ugbp":5559,"scence":5560,"Ġlargest":5561,"Ġcytoskeletal":5562,"nb":5563,"isic":5564,"Ġseg":5565,"ophe":5566,"Ġhedgehog":5567,"Ġ93":5568,"gpn":5569,"lysm":5570,"saposin":5571,"Ġsuperoxide":5572,"broad":5573,"dicer":5574,"Ġkeratin":5575,"Ġblood":5576,"vivirin":5577,"209":5578,"398":5579,"flavivirin":5580,"holog":5581,"sistant":5582,"Ġsulfo":5583,"radixin":5584,"mutant":5585,"iodinase":5586,"caffeoyl":5587,"hyaluronidase":5588,"distal":5589,"kt":5590,"kca":5591,"oamide":5592,"srp":5593,"remodeling":5594,"Ġmid":5595,"Ġplant":5596,"Ġic":5597,"contactin":5598,"005":5599,"vival":5600,"oxycarotenoid":5601,"polypyrimidine":5602,"methyltransf":5603,"svwc":5604,"phosphoribosylglycinamide":5605,"cystathionine":5606,"Ġaromatase":5607,"elastin":5608,"mide":5609,"tbp":5610,"Ġort":5611,"temp":5612,"ened":5613,"Ġgran":5614,"Ġchaperonin":5615,"Ġ64":5616,"aspase":5617,"bar":5618,"gator":5619,"post":5620,"inate":5621,"Ġsuccin":5622,"Ġsleep":5623,"Ġfas":5624,"Ġhm":5625,"Ġangi":5626,"Ġdeiodinase":5627,"ligin":5628,"Ġ62":5629,"aceto":5630,"Ġww":5631,"acetylhexosaminidase":5632,"186":5633,"phosphom":5634,"moesin":5635,"phos":5636,"Ġtriad":5637,"ostasis":5638,"receptivity":5639,"pantoth":5640,"cit":5641,"tate":5642,"Ġ170":5643,"Ġmms":5644,"ogalact":5645,"absc":5646,"096":5647,"076":5648,"089":5649,"558":5650,"Ġhomeostasis":5651,"ethylthiotransferase":5652,"(+)/":5653,"Ġcardiac":5654,"Ġcopii":5655,"adaptin":5656,"Ġcomplementation":5657,"oliberin":5658,"Ġquiver":5659,"utrophil":5660,"Ġsulfoethylthiotransferase":5661,"Ġsleepless":5662,"Ġdeoxy":5663,"Ġepid":5664,"Ġsplit":5665,"cystokinin":5666,"ceramidase":5667,"bacte":5668,"fh":5669,"fs":5670,"mlo":5671,"Ġdq":5672,"lem":5673,"icolin":5674,"myx":5675,"046":5676,"Ġalternative":5677,"sepallata":5678,"gonadoliberin":5679,"homogentisate":5680,"polyprenyl":5681,"Ġamin":5682,"Ġchemosensory":5683,"cepha":5684,"umb":5685,"ticin":5686,"Ġ59":5687,"max":5688,"035":5689,"Ġcohesion":5690,"Ġatf":5691,"cholecystokinin":5692,"Ġmuscul":5693,"Ġperitrophin":5694,"rvesting":5695,"dig":5696,"nig":5697,"renyl":5698,"yabby":5699,"Ġbcl":5700,"Ġge":5701,"acetylneuramin":5702,"ogenin":5703,"cardiac":5704,"arginyl":5705,"retinal":5706,"wave":5707,"branching":5708,"Ġphotosystem":5709,"speckle":5710,"controlled":5711,"endophilin":5712,"Ġvis":5713,"otri":5714,"Ġ67":5715,"230":5716,"kinetochore":5717,"Ġamidase":5718,"Ġlink":5719,"Ġpathogenesis":5720,"adrenocorticotropic":5721,"Ġsirtuin":5722,"keleton":5723,"cam":5724,"pee":5725,"Ġhla":5726,"tobrevin":5727,"Ġmdm":5728,"glutamylcyclotransferase":5729,"melanoma":5730,"rubisco":5731,"opherol":5732,"pum":5733,"Ġsnap":5734,"Ġsingle":5735,"Ġnduf":5736,"Ġlam":5737,"100145":5738,"Ġabsent":5739,"syndecan":5740,"derlin":5741,"Ġceram":5742,"Ġplace":5743,"big":5744,"nsp":5745,"uin":5746,"eppel":5747,"Ġisoforms":5748,"odoxin":5749,"ronine":5750,"Ġspectrin":5751,"Ġchloroplast":5752,"allat":5753,"Ġelongase":5754,"gut":5755,"gmp":5756,"pod":5757,"Ġml":5758,"idne":5759,"Ġnk":5760,"villin":5761,"rueppel":5762,"telomere":5763,"synapt":5764,"Ġmethy":5765,"rhamnose":5766,"tachy":5767,"216":5768,"rela":5769,"activation":5770,"199":5771,"Ġperacid":5772,"Ġrutc":5773,"integrase":5774,"Ġauxin":5775,"sarcoglycan":5776,"uloviral":5777,"plastoquinone":5778,"vh":5779,"Ġterminal":5780,"ats":5781,"lexin":5782,"asse":5783,"aryop":5784,"carboxylase":5785,"Ġproto":5786,"varian":5787,"farne":5788,"psbp":5789,"ocalcin":5790,",-":5791,"260":5792,"elovl":5793,"purine":5794,"ze":5795,"hap":5796,"Ġtol":5797,"quired":5798,"cyanin":5799,"Ġalbumin":5800,"nesyltransferase":5801,"tmem":5802,"testicular":5803,"rough":5804,"phosphoribosylaminoimidazole":5805,"Ġmolybdenum":5806,"abscisic":5807,"cbl":5808,"ien":5809,"mor":5810,"ou":5811,"shsp":5812,"Ġcpi":5813,"Ġplate":5814,"hyronine":5815,"othyronine":5816,"transport":5817,"phosphohydrolase":5818,"Ġhead":5819,"077":5820,"Ġlysozyme":5821,"uridylate":5822,"iry":5823,"rwd":5824,"rillin":5825,"ock":5826,"endothelial":5827,"Ġelovl":5828,"Ġnsl":5829,"rosome":5830,"mpf":5831,"tosynthe":5832,"304":5833,"neuroligin":5834,"blind":5835,"Ġoxygen":5836,"radial":5837,"crust":5838,"hydrophobin":5839,"Ġplatelet":5840,"wus":5841,"Ġsmooth":5842,"Ġdrop":5843,"143":5844,"295":5845,"asparaginase":5846,"iodothyronine":5847,"eyes":5848,"Ġdefensin":5849,"wing":5850,"Ġubiquinone":5851,"Ġhydroxysteroid":5852,"Ġ110":5853,"vement":5854,"peti":5855,"Ġgyp":5856,"Ġsyntaxin":5857,"Ġhetero":5858,"methenyl":5859,"eske":5860,"Ġphospholipid":5861,"ezrin":5862,"lucif":5863,"215":5864,"elav":5865,"tight":5866,"Ġprfa":5867,"ocr":5868,"Ġkv":5869,"Ġest":5870,"opterin":5871,"ducing":5872,"Ġ99":5873,"043":5874,"064":5875,"Ġendosomal":5876,"ypt":5877,"change":5878,"lacto":5879,"translational":5880,"tosynthetic":5881,"Ġdroplet":5882,"213":5883,"218":5884,"coc":5885,"Ġdup":5886,"lymphoma":5887,"laris":5888,"Ġpap":5889,"Ġana":5890,"Ġautophagy":5891,"gelin":5892,"057":5893,"secretase":5894,"Ġcalponin":5895,"ocarboxypropyltransferase":5896,"phosphomann":5897,"Ġaminocarboxypropyltransferase":5898,"Ġcpij":5899,"wat":5900,"Ġctd":5901,"Ġfto":5902,"sporo":5903,"epoxycarotenoid":5904,"nescence":5905,"Ġbc":5906,"Ġnegative":5907,"jugate":5908,"plasminogen":5909,"metabotropic":5910,"stitutive":5911,"petitive":5912,"cbp":5913,"imin":5914,"katanin":5915,"onol":5916,"dial":5917,"presenilin":5918,"carcin":5919,"aai":5920,"sialidase":5921,"Ġmultifunctional":5922,"aminolevulinic":5923,"Ġcarbam":5924,"Ġcircadian":5925,"iency":5926,"cugbp":5927,"Ġneural":5928,"fel":5929,"066":5930,"sentrin":5931,"carboxypropyl":5932,"deoxyribonuclease":5933,"Ġimportin":5934,"hypoxanthine":5935,"Ġdiphosphohydrolase":5936,"Ġortholog":5937,"methenyltetrahydrofolate":5938,"bridging":5939,"flexin":5940,"out":5941,"Ġfox":5942,"spindle":5943,"Ġmhc":5944,"transgelin":5945,"Ġdeacylase":5946,"Ġ74":5947,"044":5948,"haloacid":5949,"subtilisin":5950,"iety":5951,"Ġyippee":5952,"aminolevulinate":5953,"exostosin":5954,"Ġvisual":5955,"dal":5956,"xc":5957,"Ġsha":5958,"nascent":5959,"degrin":5960,"ligase":5961,"Ġrb":5962,"194":5963,"Ġufm":5964,"carbonyl":5965,"photosynthetic":5966,"Ġchromatid":5967,"baculoviral":5968,"Ġgeran":5969,"tachykinin":5970,"ftx":5971,"nup":5972,"ino":5973,"resid":5974,"recognition":5975,"Ġpeptid":5976,"cytic":5977,"hthal":5978,"expor":5979,"phosphatidyltransferase":5980,"phosv":5981,"Ġjuvenile":5982,"methionyl":5983,"hoxy":5984,"Ġcopper":5985,"Ġbacte":5986,"phosphomannomutase":5987,"phosvitin":5988,"juvenile":5989,"Ġrev":5990,"isoflav":5991,"loprotein":5992,"ecrh":5993,"163":5994,"athmin":5995,"Ġixodegrin":5996,"phosphoglucomutase":5997,"oactive":5998,"Ġmitotic":5999,"maleyl":6000,"Ġtroponin":6001,"luteinizing":6002,"Ġpeptidoglycan":6003,"cas":6004,"hrom":6005,"mm":6006,"ribonuc":6007,"cytid":6008,"myogenic":6009,"184":6010,"ilk":6011,"agon":6012,"045":6013,"ppp":6014,"translocation":6015,"Ġcgmp":6016,"Ġmmsk":6017,"ocrine":6018,"feldin":6019,"ribonucloprotein":6020,"agl":6021,"sha":6022,"xanthine":6023,"Ġop":6024,"Ġerythrocyte":6025,"Ġsur":6026,"amerin":6027,"osyn":6028,"Ġgated":6029,"fect":6030,"093":6031,"utenin":6032,"Ġznf":6033,"ilio":6034,"Ġadenosyltransferase":6035,"Ġrpb":6036,"parvalbumin":6037,"thrombin":6038,"zfp":6039,"Ġpoz":6040,"Ġretinol":6041,"retrovirus":6042,"pican":6043,"ranilate":6044,"olactate":6045,"exporting":6046,"270":6047,"cad":6048,"ian":6049,"yrase":6050,"za":6051,"alky":6052,"Ġflower":6053,"leted":6054,"edl":6055,"anoyl":6056,"Ġrepetitive":6057,"osamine":6058,"ulence":6059,"151":6060,"189":6061,"hydroxyphenyl":6062,"Ġmoiety":6063,"bpti":6064,"bsb":6065,"Ġmethylesterase":6066,"assembly":6067,"maleylacetoacetate":6068,"-)":6069,"ara":6070,"hma":6071,"shock":6072,"aconitate":6073,"erc":6074,"hed":6075,"Ġkqt":6076,"095":6077,"097":6078,"six":6079,"esity":6080,"thiorib":6081,"245":6082,"085":6083,"leukotri":6084,"Ġmye":6085,"pentraxin":6086,"amycin":6087,"leukotriene":6088,"candidate":6089,"pv":6090,"src":6091,"vb":6092,"ws":6093,"Ġstran":6094,"Ġbax":6095,"Ġ78":6096,"cay":6097,"Ġqbsb":6098,"Ġmethylase":6099,"496":6100,"accharop":6101,"ardet":6102,"Ġsterile":6103,"Ġmix":6104,"Ġdiphosphokinase":6105,"Ġsilen":6106,"Ġepidermal":6107,"303":6108,"ding":6109,"get":6110,"skeletal":6111,"Ġone":6112,"Ġmaf":6113,"loti":6114,"ligand":6115,"biedl":6116,"sitivity":6117,"Ġchitin":6118,"054":6119,"spermine":6120,"survival":6121,"ribonucleoside":6122,"Ġbranching":6123,"Ġmolybdenumtransferase":6124,"air":6125,"pks":6126,"orphan":6127,"enate":6128,"Ġcut":6129,"Ġdhx":6130,"spin":6131,"sparc":6132,"neutrophil":6133,"Ġtf":6134,"uclein":6135,"opy":6136,"upstream":6137,"Ġlymphoma":6138,"195":6139,"ugmin":6140,"adiponectin":6141,"Ġglycosylation":6142,"depolymerizing":6143,"Ġmusculus":6144,"synaptosomal":6145,"lotillin":6146,"cac":6147,"dane":6148,"mx":6149,"pal":6150,"wh":6151,"Ġfmr":6152,"onoyl":6153,"ocytic":6154,"methylene":6155,"glutamylcysteine":6156,"snake":6157,"Ġsteroid":6158,"genicity":6159,"Ġsulfurtransferase":6160,"mesoderm":6161,"proporphyrinogen":6162,"oplasmin":6163,"Ġgeranyl":6164,"accharopine":6165,"danese":6166,"fos":6167,"yth":6168,"ature":6169,"Ġsial":6170,"ainate":6171,"ssmann":6172,"202":6173,"escrt":6174,"Ġ82":6175,"modi":6176,"fact":6177,"Ġrossmann":6178,"ci":6179,"cub":6180,"gum":6181,"sun":6182,"inhibiting":6183,"Ġswi":6184,"Ġcn":6185,"tition":6186,"Ġmarch":6187,"ecs":6188,"Ġribosyl":6189,"099":6190,"Ġcointegrator":6191,"aminoimidazole":6192,"228":6193,"poke":6194,"Ġacetylhydrolase":6195,"Ġrpabc":6196,"fibromin":6197,"Ġphase":6198,"vaso":6199,"runt":6200,"Ġaaex":6201,"follistatin":6202,"carcino":6203,"cup":6204,"Ġgolgin":6205,"Ġgalac":6206,"coproporphyrinogen":6207,"myoglobin":6208,"Ġ94":6209,"193":6210,"308":6211,"rpb":6212,"thyretin":6213,"pick":6214,"strand":6215,"dihydrolipoamide":6216,"pyrophosphate":6217,"Ġsilencing":6218,"Ġhand":6219,"rod":6220,"prophenoloxidase":6221,"enta":6222,"Ġdetermin":6223,"umen":6224,"minic":6225,"073":6226,"Ġpara":6227,"della":6228,"mjc":6229,"Ġsnare":6230,"thymosin":6231,"+)-":6232,"547":6233,"fip":6234,"oadenylate":6235,"ubp":6236,"Ġbridging":6237,"086":6238,"homeotic":6239,"auro":6240,"phenylalanyl":6241,"Ġalkb":6242,"kv":6243,"Ġot":6244,"inal":6245,"ranin":6246,"transketolase":6247,"transthyretin":6248,"ochor":6249,"Ġlumen":6250,"Ġdihydro":6251,"Ġxi":6252,"glutamic":6253,"velled":6254,"Ġretinoic":6255,"Ġfarnesyltransferase":6256,"chinoderm":6257,"dystroglycan":6258,"Ġtransforming":6259,"hevelled":6260,"anten":6261,"Ġpha":6262,"conjugate":6263,"Ġins":6264,"Ġtransactivator":6265,"Ġset":6266,"Ġole":6267,"Ġproduction":6268,"molec":6269,"Ġbioprotein":6270,"butyrophilin":6271,"tocopherol":6272,"Ġstimul":6273,"Ġasparag":6274,"Ġerythroid":6275,"vca":6276,"Ġopioid":6277,"Ġscp":6278,"risp":6279,"Ġkidne":6280,"emann":6281,"imm":6282,"tax":6283,"305":6284,"067":6285,"pentaxin":6286,"Ġoncoprotein":6287,"isoaspartate":6288,"Ġbreak":6289,"Ġselenoprotein":6290,"glycerophosphodiester":6291,"chondro":6292,"wuschel":6293,"gas":6294,"urate":6295,"Ġsr":6296,"relin":6297,"Ġdep":6298,"host":6299,"igna":6300,"Ġnr":6301,"phosphoesterase":6302,"myoc":6303,"Ġ91":6304,"aga":6305,"intermediate":6306,"Ġtranscriptvariant":6307,"polo":6308,"Ġrectifying":6309,"isoflavone":6310,"female":6311,"sing":6312,"xk":6313,"Ġhook":6314,"tethe":6315,"atrial":6316,"Ġchem":6317,"Ġdic":6318,"itonin":6319,"lagenase":6320,"Ġnek":6321,"liprin":6322,"152":6323,"ructure":6324,"hemat":6325,"pantethe":6326,"Ġglucosidase":6327,"Ġbiosynthetic":6328,"Ġarm":6329,"Ġhyper":6330,"cobalamin":6331,"ogalactan":6332,"ignant":6333,"bardet":6334,"demethylase":6335,"grip":6336,"yb":6337,"time":6338,"ung":6339,"sprin":6340,"anine":6341,"Ġkir":6342,"emase":6343,"ogo":6344,"Ġnat":6345,"Ġ81":6346,"exo":6347,"rhodanese":6348,"fibrillar":6349,"smc":6350,"fucosidase":6351,"catechol":6352,"Ġembryonic":6353,"calcitonin":6354,"Ġaspartic":6355,"Ġaspartyl":6356,"Ġduplicate":6357,"asin":6358,"bas":6359,"hit":6360,"Ġchol":6361,"Ġcwc":6362,"actonase":6363,"editing":6364,"Ġinsensitive":6365,"Ġvas":6366,"201":6367,"glucosyl":6368,"258":6369,"Ġcarnitine":6370,"cyclotide":6371,"ismate":6372,"Ġinwardly":6373,"titioning":6374,"aurora":6375,"bitol":6376,"sry":6377,"sonic":6378,"wy":6379,"onyltransferase":6380,"phag":6381,"Ġline":6382,"agap":6383,"nacre":6384,"carboxyvin":6385,"Ġcarbo":6386,"isoval":6387,"monoacylglycerol":6388,"Ġcytosine":6389,"Ġsterol":6390,"Ġisoenzyme":6391,"fmrfamide":6392,"hydroxyisobutyryl":6393,"aj":6394,"kap":6395,"prouty":6396,"ramb":6397,"nesprin":6398,"Ġgaba":6399,"quili":6400,"Ġcystatin":6401,"196":6402,"glycosidase":6403,"Ġactivase":6404,"087":6405,"neurogenic":6406,"Ġercc":6407,"brative":6408,"melanocortin":6409,"Ġmagnesium":6410,"jacent":6411,"demethyl":6412,"athyroid":6413,"onolactonase":6414,"Ġstimulation":6415,"carboxyvinyltransferase":6416,"Ġcarbohydrate":6417,"quilibrative":6418,"Ġhit":6419,"Ġtransamidase":6420,"Ġeb":6421,"stathmin":6422,"172":6423,"aste":6424,"acetolactate":6425,"276":6426,"gile":6427,"pyrimidinase":6428,"Ġmethi":6429,"lymphoid":6430,"Ġnicotinic":6431,"510":6432,"bis":6433,"igenicity":6434,"ense":6435,"omatin":6436,"verex":6437,"cel":6438,"mec":6439,"183":6440,"Ġglutenin":6441,"fibrillin":6442,"homo":6443,"ghrelin":6444,"Ġtumorigenicity":6445,"Ġglobulin":6446,"transcript":6447,"slowpoke":6448,"histamine":6449,"Ġtestis":6450,"Ġddb":6451,"Ġagl":6452,"cystin":6453,"chid":6454,"phosphoshikimate":6455,"Ġnucleoporin":6456,"083":6457,"Ġendoribonuclease":6458,"Ġmulticopper":6459,"lysophosphatidic":6460,"creb":6461,"Ġfiber":6462,"Ġscramb":6463,"amyloplastic":6464,"hydroxybenzoate":6465,"aroyl":6466,"Ġribosylation":6467,"bor":6468,"hp":6469,"pac":6470,"Ġquinone":6471,"Ġkh":6472,"Ġtraf":6473,"malonate":6474,"sicon":6475,"carboxyl":6476,"306":6477,"sector":6478,"Ġinterleukin":6479,"ardation":6480,"monophosphatase":6481,"cystic":6482,"ectonucleotide":6483,"Ġretardation":6484,"Ġscramblase":6485,"569":6486,"pud":6487,"tsc":6488,"vig":6489,"rian":6490,"tim":6491,"uba":6492,"Ġrequired":6493,"Ġmes":6494,"Ġphy":6495,"hyper":6496,"ternal":6497,"development":6498,"quinol":6499,"ribo":6500,"Ġacc":6501,"ott":6502,"Ġtoleran":6503,"094":6504,"Ġnucleotidase":6505,"Ġextensin":6506,"mob":6507,"pastatin":6508,"alized":6509,"allene":6510,"tcf":6511,"Ġsensitivity":6512,"oflavin":6513,"queuine":6514,"back":6515,"saccharopine":6516,"tt":6517,"tilin":6518,"Ġear":6519,"mevalonate":6520,"oph":6521,"sorbin":6522,"503":6523,"Ġrnase":6524,"neuregulin":6525,"urea":6526,"neurofilament":6527,"raft":6528,"Ġuptake":6529,"somatotropin":6530,"Ġvesicular":6531,"Ġkainate":6532,"dia":6533,"hexamerin":6534,"Ġyellow":6535,"rgd":6536,"phanous":6537,"homogentisic":6538,"relaxin":6539,"jas":6540,"krueppel":6541,"olipin":6542,"pepsin":6543,"tlr":6544,"Ġod":6545,"tidial":6546,"Ġmg":6547,"Ġplk":6548,"isk":6549,"deaminase":6550,"Ġnop":6551,"phosphopantethe":6552,"calpastatin":6553,"tokinase":6554,"301":6555,"osylprotein":6556,"Ġadhesin":6557,"andem":6558,"Ġviia":6559,"ged":6560,"plac":6561,"anoid":6562,"Ġpas":6563,"deleted":6564,"olyase":6565,"adf":6566,"Ġltd":6567,"glucagon":6568,"Ġnucleosome":6569,"micin":6570,"ractin":6571,"intestinal":6572,"161":6573,"030":6574,"polyamine":6575,"Ġ102":6576,"maguk":6577,"dihydropyrimidinase":6578,"564":6579,"acking":6580,"cystine":6581,"dehydroascorbate":6582,"seudouridylate":6583,"iversal":6584,"Ġsarcoma":6585,"protoporphyrinogen":6586,"Ġgranule":6587,"pumilio":6588,"aryopherin":6589,"iskott":6590,"Ġltdf":6591,"''":6592,"md":6593,"sho":6594,"Ġfrizzled":6595,"erature":6596,"Ġpx":6597,"ardin":6598,"ice":6599,"Ġkinases":6600,"Ġndh":6601,"opf":6602,"171":6603,"sirt":6604,"Ġ84":6605,"Ġ97":6606,"iline":6607,"glyceride":6608,"ruvb":6609,"Ġgpr":6610,"Ġgpcr":6611,"nacht":6612,"transposable":6613,"Ġorphan":6614,"parathyroid":6615,"Ġmethane":6616,"bkca":6617,"Ġthyroid":6618,"aldrich":6619,"Ġglycotransferase":6620,"icarb":6621,"xvii":6622,"Ġinsulin":6623,"370":6624,"],":6625,"bindin":6626,"fra":6627,"fumarate":6628,"rhe":6629,"wash":6630,"rical":6631,"haus":6632,"hairy":6633,"termicin":6634,"Ġessen":6635,"hibin":6636,"Ġiie":6637,"Ġ69":6638,"carboxamide":6639,"235":6640,"feit":6641,"sectin":6642,"xylosylprotein":6643,"pci":6644,"ized":6645,"Ġkinetochore":6646,"Ġracemase":6647,"ectonucleoside":6648,"310":6649,"340":6650,"damage":6651,"lx":6652,"ng":6653,"inner":6654,"hite":6655,"141":6656,"aminoadip":6657,"Ġprolyl":6658,"302":6659,"cyclizing":6660,"laniline":6661,"Ġlife":6662,"vasin":6663,"bromo":6664,"metastasis":6665,"wwp":6666,"Ġprocessome":6667,"dimethylaniline":6668,"enediol":6669,"molecular":6670,"cofilin":6671,"dre":6672,"gulf":6673,"krr":6674,"kissp":6675,"mod":6676,"proprotein":6677,"Ġcss":6678,"Ġbo":6679,"Ġtranshydrogenase":6680,"apyrase":6681,"phosphoethanolamine":6682,"142":6683,"amplified":6684,"galactoside":6685,"deoxyribo":6686,"tryptophanyl":6687,"Ġuncoupling":6688,"caffeic":6689,"Ġxylosyltransferase":6690,"gulfment":6691,"kisspeptin":6692,"ele":6693,"kit":6694,"knot":6695,"ln":6696,"Ġinclu":6697,"234":6698,"phyl":6699,"glutamyltransferase":6700,"pyruv":6701,"559":6702,"antifreeze":6703,"Ġformation":6704,"cyclooxygenase":6705,"Ġbrace":6706,"Ġpancreatic":6707,"bursicon":6708,"hromosome":6709,"hydroxyphenylpyruvate":6710,"ability":6711,"block":6712,"dock":6713,"human":6714,"kopf":6715,"nck":6716,"nlr":6717,"uncoupling":6718,"Ġ112":6719,"Ġmental":6720,"Ġfactors":6721,"ripen":6722,"187":6723,"238":6724,"mph":6725,"266":6726,"Ġadjacent":6727,"tonoplast":6728,"290":6729,"379":6730,"586":6731,"npr":6732,"curc":6733,"nicotinate":6734,"plastidial":6735,"Ġdeoxyribonuclease":6736,"Ġceramidase":6737,"carcinoembryonic":6738,"grb":6739,"ntp":6740,"zin":6741,"senescence":6742,"rist":6743,"unda":6744,"lage":6745,"Ġmx":6746,"Ġpeptidyl":6747,"Ġbtf":6748,"icillin":6749,"Ġdecay":6750,"cytotoxic":6751,"pentakisphosphate":6752,"Ġrpt":6753,"prostanoid":6754,"Ġfibrillar":6755,"threonylcarbamoyladenosine":6756,"Ġbioproteinsis":6757,"aq":6758,"bind":6759,"echinoderm":6760,"xen":6761,"hamide":6762,"transaldolase":6763,"Ġaugmin":6764,"diphenol":6765,"apoptotic":6766,"Ġspo":6767,"microp":6768,"Ġexporter":6769,"nonstructural":6770,"055":6771,"tripeptidyl":6772,"arfgap":6773,"muscleblind":6774,"Ġapobec":6775,"fruitfull":6776,"Ġmethionine":6777,"Ġincludes":6778,"aicar":6779,"bute":6780,"dt":6781,"ju":6782,"jmjc":6783,"rhl":6784,"Ġside":6785,"tilage":6786,"Ġkd":6787,"Ġsubtilisin":6788,"isome":6789,"dimethyl":6790,"adult":6791,"hiol":6792,"vian":6793,"glypican":6794,"disco":6795,"Ġinducer":6796,"fluorescent":6797,"meiotic":6798,"Ġretrovirus":6799,"terior":6800,"diphthamide":6801,"wyosine":6802,"sirtuin":6803,"ai":6804,"flotillin":6805,"atinase":6806,"Ġslc":6807,"Ġcement":6808,"Ġpm":6809,"ockey":6810,"Ġkn":6811,"tail":6812,"Ġru":6813,"abled":6814,"227":6815,"topamine":6816,"Ġjockey":6817,"Ġamide":6818,"sym":6819,"nanos":6820,"domains":6821,"neurofibromin":6822,"Ġrhoa":6823,"Ġmei":6824,"glioside":6825,"anthranilate":6826,"Ġsalp":6827,"nmda":6828,"Ġfibroblast":6829,"benzenediol":6830,"Ġchole":6831,"Ġdeficiency":6832,"minichromosome":6833,"217":6834,"ji":6835,"tar":6836,"Ġthreonine":6837,"Ġhyp":6838,"att":6839,"Ġfat":6840,"hodopsin":6841,"ranbp":6842,"kexin":6843,"terf":6844,"Ġriboside":6845,"nucleob":6846,"604":6847,"608":6848,"leuco":6849,"scam":6850,"Ġgpi":6851,"syntenin":6852,"boli":6853,"lrrgt":6854,"cytosol":6855,"perilipin":6856,"salt":6857,"obesity":6858,"ansky":6859,"galactosylgalactosyl":6860,"ietic":6861,"nascin":6862,"sporozoite":6863,"Ġrbbp":6864,"curcumin":6865,"galactosylgalactosylxylosylprotein":6866,"bg":6867,"hsf":6868,"lpoly":6869,"rrp":6870,"ulate":6871,"uris":6872,"was":6873,"Ġent":6874,"tec":6875,"tis":6876,"hedgehog":6877,"Ġaed":6878,"Ġtt":6879,"indole":6880,"daz":6881,"olylpoly":6882,"Ġhomologous":6883,"phosphohexokinase":6884,"237":6885,"tropomodulin":6886,"Ġ106":6887,"tubby":6888,"690":6889,"Ġdyna":6890,"Ġsynaptotagmin":6891,"Ġtoll":6892,"arachid":6893,"urishiol":6894,"cocyanin":6895,"ua":6896,"Ġdad":6897,"amm":6898,"hysin":6899,"ckkopf":6900,"Ġtrin":6901,"oderin":6902,"508":6903,"Ġspf":6904,"Ġdikinase":6905,"229":6906,"wdr":6907,"ermansky":6908,"Ġsmg":6909,"adipocyte":6910,"Ġtruncated":6911,"Ġdownstream":6912,"Ġsegment":6913,"acetylneuraminate":6914,"pudlak":6915,"icarbonate":6916,"fmr":6917,"scaffold":6918,"tv":6919,"uno":6920,"lis":6921,"ormal":6922,"Ġtransient":6923,"biopterin":6924,"glutarate":6925,"225":6926,"glycyl":6927,"553":6928,"Ġorganization":6929,"asparaginyl":6930,"recrow":6931,"proliferation":6932,"Ġtropomyosin":6933,"modifying":6934,"msh":6935,"atf":6936,"lide":6937,"hell":6938,"Ġmachin":6939,"Ġbif":6940,"ullate":6941,"Ġherc":6942,"ofer":6943,"Ġastro":6944,"Ġ86":6945,"hydroxycinnamoyl":6946,"084":6947,"rps":6948,"Ġhair":6949,"allergen":6950,"patched":6951,"Ġglutamic":6952,"lysophospholipase":6953,"opoietic":6954,"Ġampullate":6955,"oxidative":6956,"cystein":6957,"allatostatin":6958,"Ġmachinery":6959,"549":6960,"bt":6961,"Ġtransp":6962,"Ġcress":6963,"Ġdist":6964,"holoc":6965,"osulf":6966,"umon":6967,"localized":6968,"162":6969,"phosphor":6970,"307":6971,"280":6972,"riched":6973,"Ġmym":6974,"Ġcalc":6975,"tetradecan":6976,"dcn":6977,"deoxycytidine":6978,"oleosin":6979,"thale":6980,"circ":6981,"fumarylacetoacetate":6982,"Ġplasminogen":6983,"hthalmia":6984,"Ġchemot":6985,"timeless":6986,"phagocytic":6987,"jasmon":6988,"tetradecanoyltransferase":6989,"cro":6990,"dit":6991,"folylpoly":6992,"kif":6993,"Ġriken":6994,"insensitive":6995,"torsin":6996,"Ġtbx":6997,"deform":6998,"cereb":6999,"adducin":7000,"Ġiiib":7001,"acylhydrolase":7002,"rong":7003,"ogene":7004,"lightless":7005,"glycosylase":7006,"methylmalonyl":7007,"566":7008,"phycocyanin":7009,"metalloprotease":7010,"xylose":7011,"sphingolipid":7012,"somatic":7013,"peripheral":7014,"thymidylate":7015,"wilms":7016,"scarecrow":7017,"glycylpeptide":7018,"fxy":7019,"kat":7020,"rl":7021,"Ġul":7022,"Ġasc":7023,"Ġtata":7024,"isochor":7025,"cessed":7026,"ucleotide":7027,"mast":7028,"605":7029,"Ġexten":7030,"181":7031,"mpp":7032,"031":7033,"alization":7034,"plei":7035,"synaptobrevin":7036,"surfeit":7037,"dystrobrevin":7038,"thioadenosine":7039,"thymidine":7040,"niemann":7041,"Ġcholesterol":7042,"leucoanthocyanidin":7043,"umonji":7044,"fxyd":7045,"body":7046,"crisp":7047,"pseudouridine":7048,"protec":7049,"orhodopsin":7050,"onist":7051,"Ġcll":7052,"rexin":7053,"Ġbot":7054,"Ġtandem":7055,"dex":7056,"itochondria":7057,"ulatory":7058,"ulinum":7059,"182":7060,"032":7061,"arginase":7062,"Ġhormones":7063,"neurexin":7064,"ppm":7065,"sister":7066,"Ġepoxide":7067,"elinase":7068,"omyelinase":7069,"Ġliver":7070,"Ġbreast":7071,"Ġapolipoprotein":7072,"homologous":7073,"helical":7074,"getative":7075,"bh":7076,"bag":7077,"df":7078,"elastase":7079,"kr":7080,"vw":7081,"tenascin":7082,"robo":7083,"enyltransferase":7084,"albumin":7085,"Ġmuc":7086,"Ġtau":7087,"Ġnhr":7088,"latent":7089,"Ġcoli":7090,"inducer":7091,"soic":7092,"hydryl":7093,"380":7094,"intron":7095,"selenocysteine":7096,"nudc":7097,"ladenine":7098,"togranin":7099,"Ġfour":7100,"Ġtolerance":7101,")(":7102,"570":7103,"blo":7104,"hermansky":7105,"ryn":7106,"wu":7107,"Ġsf":7108,"lice":7109,"cklf":7110,"Ġgel":7111,"Ġgonad":7112,"Ġarabin":7113,"deah":7114,"Ġec":7115,"minor":7116,"607":7117,"Ġ73":7118,"escul":7119,"hibition":7120,"259":7121,"cluster":7122,"lactos":7123,"midgut":7124,"tetrahydrobiopterin":7125,"Ġperiod":7126,"propionyl":7127,"Ġstranded":7128,"Ġdynamic":7129,"Ġcalcineurin":7130,"esculentin":7131,"fgf":7132,"ggy":7133,"mw":7134,"oend":7135,"ritical":7136,"omin":7137,"idal":7138,"ropin":7139,"Ġantizyme":7140,"Ġexclusion":7141,"Ġoverex":7142,"dinin":7143,"446":7144,"Ġglycan":7145,"Ġsulfatase":7146,"secretogranin":7147,"Ġproteorhodopsin":7148,"dmrt":7149,"striatin":7150,"Ġferredoxin":7151,"Ġperiplasmic":7152,"methylenetetrahydrofolate":7153,"men":7154,"Ġsoc":7155,"Ġchymotrypsin":7156,"Ġcaspase":7157,"Ġcritical":7158,"Ġbrom":7159,"Ġgins":7160,"Ġsep":7161,"Ġpolyglutam":7162,"imal":7163,"ascin":7164,"244":7165,"cardi":7166,"carinic":7167,"cycl":7168,"artment":7169,"480":7170,"patch":7171,"twist":7172,"vasoactive":7173,"methyladenosine":7174,"ismatase":7175,"ncvp":7176,"Ġdopamine":7177,"Ġgenes":7178,"myxovirus":7179,"phosphopantetheinyl":7180,"rongyl":7181,"Ġascorbate":7182,"Ġpolyglutamylase":7183,"cw":7184,"normal":7185,"pte":7186,"sesqu":7187,"Ġfunctional":7188,"itch":7189,"707":7190,"occal":7191,"Ġben":7192,"Ġgap":7193,"diphosphomevalonate":7194,"qua":7195,"quest":7196,"Ġdefect":7197,"nuclease":7198,"myticin":7199,"Ġovarian":7200,"Ġalanine":7201,"triphosphatase":7202,"Ġtriacylglycerol":7203,"Ġwdr":7204,"deoxynucleoside":7205,"548":7206,"Ġ122":7207,"riboflavin":7208,"Ġvia":7209,"oreceptor":7210,"ropain":7211,"malonyltransferase":7212,"091":7213,"Ġwy":7214,"Ġsuper":7215,"hydroxyproline":7216,"Ġqc":7217,"589":7218,"fructofuranosidase":7219,"Ġcolony":7220,"anthocyanin":7221,"Ġrieske":7222,"neuropilin":7223,"outi":7224,"immmunoglobulin":7225,"Ġaedes":7226,"Ġbotulinum":7227,"538":7228,"bax":7229,"Ġaeg":7230,"dienoyl":7231,"ribution":7232,"Ġneprilysin":7233,"Ġregulating":7234,"192":7235,"Ġout":7236,"261":7237,"074":7238,"medi":7239,"sulfhydryl":7240,"audal":7241,"gans":7242,"butosine":7243,"skip":7244,"Ġgstu":7245,"Ġlinked":7246,"Ġcholine":7247,"Ġentry":7248,"Ġwybutosine":7249,"clock":7250,"lg":7251,"lh":7252,"some":7253,"tlc":7254,"vinc":7255,"teb":7256,"Ġsix":7257,"Ġpc":7258,"Ġphe":7259,"rizing":7260,"Ġkatanin":7261,"Ġhistamine":7262,"thr":7263,"Ġtcp":7264,"Ġect":7265,"quinate":7266,"Ġno":7267,"acetone":7268,"Ġconfer":7269,"Ġwing":7270,"Ġ87":7271,"267":7272,"Ġlipocal":7273,"agouti":7274,"phox":7275,"579":7276,"elmo":7277,"valent":7278,"gybac":7279,"Ġstem":7280,"Ġmusashi":7281,"propylmalate":7282,"grailed":7283,"acean":7284,"Ġessential":7285,"isomerizing":7286,"Ġaegyp":7287,"ess":7288,"junctional":7289,"kbp":7290,"Ġmam":7291,"umsporozoite":7292,"Ġvh":7293,"romeric":7294,"Ġhemb":7295,"403":7296,"essen":7297,"Ġ89":7298,"10013":7299,"063":7300,"Ġprefoldin":7301,"chorismate":7302,"glial":7303,"Ġmacropain":7304,"kaur":7305,"motif":7306,"fruitful":7307,"amido":7308,"circumsporozoite":7309,"vinculin":7310,"essential":7311,"fub":7312,"kazal":7313,"xx":7314,"Ġcsp":7315,"tip":7316,"Ġflightless":7317,"Ġinhibition":7318,"endocrine":7319,"isop":7320,"hibited":7321,"phen":7322,"100158":7323,"synuclein":7324,"denticle":7325,"discs":7326,"twin":7327,"bruno":7328,"gdsl":7329,"Ġmetastasis":7330,"tagog":7331,"temporin":7332,"microphthalmia":7333,"Ġaegypti":7334,"610":7335,"wiskott":7336,"Ġcbl":7337,"Ġbe":7338,"Ġbp":7339,"ign":7340,"ighbor":7341,"phosphokinase":7342,"1100":7343,"movement":7344,"224":7345,"trifunctional":7346,"Ġpyrophosphokinase":7347,"Ġoligopeptide":7348,"Ġmetalloproteinases":7349,"Ġpermeability":7350,"Ġrecruit":7351,"Ġubr":7352,"cxxc":7353,"Ġtmem":7354,"Ġlamtor":7355,"ripening":7356,"Ġdistribution":7357,"Ġdynamics":7358,"kaurene":7359,"Ġrecruitment":7360,"529":7361,"brid":7362,"cement":7363,"fascin":7364,"ja":7365,"jo":7366,"pip":7367,"sla":7368,"tox":7369,"uria":7370,"wap":7371,"Ġcs":7372,"larization":7373,"Ġbind":7374,"Ġbas":7375,"Ġgla":7376,"endoribonuclease":7377,"olymph":7378,"cdy":7379,"nitrogen":7380,"homer":7381,"Ġtriglyceride":7382,"ragulator":7383,"ferentially":7384,"Ġdopa":7385,"acetylgalactosaminide":7386,"350":7387,"purin":7388,"toglobin":7389,"prohormone":7390,"Ġcc":7391,"Ġcat":7392,"yld":7393,"Ġpal":7394,"Ġdesulfur":7395,"aphyl":7396,"092":7397,"Ġdimerization":7398,"polyphenol":7399,"nitrilase":7400,"ppr":7401,"enhanced":7402,"globosa":7403,"synaptop":7404,"Ġarrestin":7405,"partitioning":7406,"Ġcollagenase":7407,"cationic":7408,"ribonucleotide":7409,"granzyme":7410,"meiosis":7411,"akirin":7412,"Ġprogesterone":7413,"Ġasparagine":7414,"Ġspoke":7415,"Ġextension":7416,"Ġarabinogalactan":7417,"Ġdesulfurase":7418,"itor":7419,"tek":7420,"splice":7421,"lyr":7422,"Ġ150":7423,"Ġ116":7424,"hesive":7425,"ococcal":7426,"Ġkrab":7427,"decarboxylase":7428,"dickkopf":7429,"abin":7430,"Ġinsertion":7431,"cast":7432,"cycling":7433,"galanin":7434,"334":7435,"trimeric":7436,"590":7437,"578":7438,"Ġcyclotransferase":7439,"Ġediting":7440,"evolving":7441,"knotted":7442,")(+)-":7443,"gar":7444,"hon":7445,"lox":7446,"pq":7447,"rator":7448,"side":7449,"sequest":7450,"ality":7451,"Ġmad":7452,"ocent":7453,"igf":7454,"emic":7455,"Ġinorganic":7456,"Ġevasin":7457,"Ġnsa":7458,"Ġnsf":7459,"melat":7460,"chi":7461,"theta":7462,"236":7463,"aminotran":7464,"248":7465,"Ġmobile":7466,"intersectin":7467,"288":7468,"680":7469,"Ġglycoside":7470,"oligomycin":7471,"effector":7472,"Ġintegrator":7473,"Ġroad":7474,"ornain":7475,"beachin":7476,"Ġdiphosphoinositol":7477,"Ġmarvel":7478,"progestin":7479,"picornain":7480,"rotus":7481,"Ġmutant":7482,"Ġtrinity":7483,"rongylocent":7484,"Ġbinder":7485,"melatonin":7486,"rongylocentrotus":7487,"339":7488,"526":7489,"pk":7490,"totoxin":7491,"warf":7492,"xb":7493,"xaa":7494,"Ġnadph":7495,"Ġargonaute":7496,"inhibited":7497,"Ġgata":7498,"meris":7499,"liced":7500,"sorbitol":7501,"malignant":7502,"247":7503,"methoxy":7504,"ganglioside":7505,"sialic":7506,"cytohesin":7507,"Ġglycohydrolase":7508,"phytocyanin":7509,"phytanoyl":7510,"Ġprimary":7511,"icolinate":7512,"crustacean":7513,"Ġestrogen":7514,"cytidylate":7515,"thioribose":7516,"vwfa":7517,"Ġconferral":7518,"tektin":7519,"ese":7520,"furin":7521,"hva":7522,"iral":7523,"maturase":7524,"tant":7525,"zic":7526,"roqu":7527,"root":7528,"prominin":7529,"Ġfuc":7530,"spat":7531,"idogen":7532,"constitutive":7533,"Ġbro":7534,"Ġbet":7535,"Ġbloc":7536,"Ġelastase":7537,"Ġecdy":7538,"mesen":7539,"chk":7540,"505":7541,"606":7542,"Ġry":7543,"phf":7544,"100170":7545,"Ġalg":7546,"synt":7547,"sulfurtransferase":7548,"dipicolinate":7549,"bolism":7550,"clusterin":7551,"cyclosome":7552,"Ġblocker":7553,"ebp":7554,"fd":7555,"iterpene":7556,"pen":7557,"pass":7558,"rene":7559,"riolar":7560,"Ġfad":7561,"anchor":7562,"Ġkin":7563,"Ġadipo":7564,"Ġnck":7565,"Ġsector":7566,"405":7567,"tpt":7568,"Ġ98":7569,"facili":7570,"565":7571,"Ġelegans":7572,"transposase":7573,"Ġepoxidase":7574,"bout":7575,"Ġapoprotein":7576,"Ġpartial":7577,"synapsin":7578,"trypsinogen":7579,"oxalosuccinate":7580,"Ġbrefeldin":7581,"Ġlicpod":7582,"Ġprimase":7583,"undabout":7584,")(+)--":7585,"Ġlicpodalin":7586,")(+))":7587,"021":7588,"gsh":7589,"lsm":7590,"menin":7591,"pn":7592,"pwwp":7593,"Ġethylene":7594,"Ġtelomere":7595,"inhibin":7596,"room":7597,"rem":7598,"universal":7599,"Ġresid":7600,"staphyl":7601,"Ġvite":7602,"transportin":7603,"509":7604,"Ġoxid":7605,"Ġ79":7606,"Ġcellular":7607,"Ġchromosomal":7608,"hyllide":7609,"glutamylcystein":7610,"finose":7611,"raffinose":7612,"Ġubc":7613,"elongin":7614,"Ġalkali":7615,"sws":7616,"lakophilin":7617,"propionate":7618,"jasmonate":7619,"tebrate":7620,"merisation":7621,"glutamylcysteinyltransferase":7622,"568":7623,"enal":7624,"enza":7625,"translin":7626,"Ġsubgroup":7627,"Ġgra":7628,"dimer":7629,"meg":7630,"umenin":7631,"Ġlaminin":7632,"tiviral":7633,"ductive":7634,"Ġ77":7635,"Ġsecretagog":7636,"Ġ95":7637,"197":7638,"269":7639,"279":7640,"lysosome":7641,"dihydrofolate":7642,"formate":7643,"arylalky":7644,"Ġapoptotic":7645,"valyl":7646,"renyltransferase":7647,"dihydroorotate":7648,"Ġmediated":7649,"100127":7650,"mutl":7651,"puratus":7652,"opolygalacturonase":7653,"Ġpollen":7654,"Ġselenocysteine":7655,"Ġhemoglobin":7656,"Ġcarbamoyltransferase":7657,"demethylwyosine":7658,"element":7659,"Ġsecretagogue":7660,"arylalkylamine":7661,"420":7662,"528":7663,"pm":7664,"ylesterase":7665,"prosome":7666,"Ġcitrate":7667,"nar":7668,"Ġpost":7669,"Ġbar":7670,"Ġas":7671,"ophy":7672,"lipoyl":7673,"lipophorin":7674,"myrist":7675,"231":7676,"268":7677,"277":7678,"urfactant":7679,"anning":7680,"490":7681,"Ġstrongylocentrotus":7682,"789":7683,"nichon":7684,"estrophin":7685,"folding":7686,"fluenza":7687,"osterol":7688,"helicidin":7689,"vanced":7690,"Ġpurpuratus":7691,"residue":7692,"brisc":7693,"uz":7694,"xt":7695,"Ġleukocyte":7696,"ray":7697,"Ġcyld":7698,"omat":7699,"Ġ126":7700,"ylin":7701,"ylglutathione":7702,"Ġicdh":7703,"idp":7704,"Ġgy":7705,"Ġhctl":7706,"Ġacute":7707,"Ġlag":7708,"1089":7709,"Ġspry":7710,"100135":7711,"cave":7712,"tong":7713,"triacylglycerol":7714,"Ġrps":7715,"axanthin":7716,"super":7717,"oligosaccha":7718,"legum":7719,"sgdh":7720,"Ġrfx":7721,"imaerin":7722,"Ġsgdh":7723,"pantothenate":7724,"phylatoxin":7725,")(+)":7726,"auto":7727,"bestrophin":7728,"chy":7729,"dor":7730,"ope":7731,"ptp":7732,"plectin":7733,"ryltransferase":7734,"ato":7735,"ucc":7736,"Ġbound":7737,"Ġtx":7738,"ribble":7739,"largin":7740,"usled":7741,"507":7742,"myd":7743,"mpn":7744,"265":7745,"glycemic":7746,"agglutinin":7747,"Ġatrx":7748,"278":7749,"Ġ147":7750,"acetylglucosaminidase":7751,"Ġepit":7752,"checkpoint":7753,"Ġcytoskeleton":7754,"Ġneurons":7755,"ski":7756,"Ġcompartment":7757,"paramyosin":7758,"muscarinic":7759,"acetylgalactosamine":7760,"Ġkidney":7761,"Ġvitel":7762,"mas":7763,"mll":7764,"nithine":7765,"tle":7766,"tan":7767,"Ġus":7768,"productive":7769,"Ġsip":7770,"Ġdm":7771,"Ġbub":7772,"Ġdeform":7773,"233":7774,"exchange":7775,"inosuccinate":7776,"249":7777,"glucosaminyl":7778,"rpm":7779,"557":7780,"Ġrpl":7781,"Ġmultidrug":7782,"chelatase":7783,"lactoylglutathione":7784,"chondroitin":7785,"homoserine":7786,"Ġpheromone":7787,"Ġadipoq":7788,"cip":7789,"ccdc":7790,"dde":7791,"fen":7792,"ls":7793,"rax":7794,"tify":7795,"Ġforkhead":7796,"Ġdre":7797,"Ġresistant":7798,"Ġba":7799,"Ġtransmi":7800,"oreflexin":7801,"maf":7802,"roph":7803,"ubiquitinating":7804,"sidoreflexin":7805,"hydroxyacid":7806,"Ġatrial":7807,"flamm":7808,"Ġalle":7809,"argininosuccinate":7810,"780":7811,"781":7812,"foot":7813,"chordin":7814,"Ġspliceosome":7815,"Ġintegration":7816,"phosphogluconolactonase":7817,"cholin":7818,"serotransferrin":7819,"cathelicidin":7820,"imino":7821,"Ġmyeloid":7822,"Ġhemba":7823,"purinergic":7824,"uccinase":7825,"Ġtransmission":7826,"bq":7827,"cen":7828,"crot":7829,"elic":7830,"eosin":7831,"ratase":7832,"atypical":7833,"Ġsof":7834,"Ġmocs":7835,"Ġpos":7836,"Ġtpr":7837,"Ġeye":7838,"Ġseed":7839,"stearoyl":7840,"10015":7841,"053":7842,"Ġmethyltransferases":7843,"567":7844,"Ġamylase":7845,"Ġamidin":7846,"fiber":7847,"Ġpyd":7848,"788":7849,"defic":7850,"Ġoligoadenylate":7851,"Ġprepropeptide":7852,"ptry":7853,"beclin":7854,"Ġfarne":7855,"liverdin":7856,"Ġfolate":7857,"Ġanaphylatoxin":7858,"Ġastrocyte":7859,"Ġqcce":7860,"staphylococcal":7861,"530":7862,"dri":7863,"fri":7864,"fun":7865,"gs":7866,"mind":7867,"nsitive":7868,"pore":7869,"ylated":7870,"Ġcx":7871,"leukemia":7872,"Ġbud":7873,"diment":7874,"aps":7875,"Ġ104":7876,"390":7877,"Ġathan":7878,"284":7879,"257":7880,"telomeric":7881,"lysophospholipid":7882,"triple":7883,"Ġlis":7884,"bah":7885,"Ġphosphatidyltransferase":7886,"ficolin":7887,"lymphotoxin":7888,"batx":7889,"Ġprostaglandin":7890,"Ġbifunctional":7891,"spliceosome":7892,"legumain":7893,"540":7894,"535":7895,"bon":7896,"hig":7897,"nima":7898,"ois":7899,"vim":7900,"Ġral":7901,"rated":7902,"ena":7903,"hae":7904,"Ġpex":7905,"idance":7906,"Ġ208":7907,"cohesin":7908,"biliverdin":7909,"racle":7910,"Ġxvi":7911,"191":7912,"itis":7913,"regation":7914,"Ġhomeotic":7915,"phytos":7916,"saur":7917,"radical":7918,"urokinase":7919,"complementing":7920,"centr":7921,"Ġcdk":7922,"hoxa":7923,"isopropylmalate":7924,"Ġlea":7925,"ocalbin":7926,"Ġranbp":7927,"ovate":7928,"Ġguidance":7929,"buten":7930,"nucleobindin":7931,"ammody":7932,"sesquiterpene":7933,"facilitated":7934,"-+":7935,"abi":7936,"drb":7937,"equilibrative":7938,"fn":7939,"fbx":7940,"neph":7941,"pg":7942,"vamp":7943,"selectin":7944,"atlastin":7945,"harvesting":7946,"retaining":7947,"requ":7948,"acrosin":7949,"Ġfut":7950,"erg":7951,"Ġ135":7952,"neoend":7953,"osuccinase":7954,"Ġtvp":7955,"Ġantiviral":7956,"phosphotyrosyl":7957,"408":7958,"Ġrhomboid":7959,"Ġprogrammed":7960,"methylcytosine":7961,"anni":7962,"Ġtitin":7963,"Ġstructure":7964,"bola":7965,"oxoprostaglandin":7966,"neurokinin":7967,"Ġtransducing":7968,"mato":7969,"ptoglobin":7970,"hyaluronate":7971,"Ġcomplementing":7972,"Ġcentromere":7973,"Ġdevelopmental":7974,"adenylosuccinase":7975,"dihydrolipoyllysine":7976,"hematopoietic":7977,"dimentary":7978,"neoendorphin":7979,"520":7980,"forin":7981,"Ġthree":7982,"Ġthreonylcarbamoyladenosine":7983,"rochelatase":7984,"atter":7985,"reactive":7986,"Ġdh":7987,"hop":7988,"ube":7989,"ublec":7990,"Ġpla":7991,"Ġprenyltransferase":7992,"olfac":7993,"Ġhnrnp":7994,"ubiquilin":7995,"biase":7996,"407":7997,"Ġ96":7998,"Ġover":7999,"caax":8000,"flap":8001,"Ġendohydrolase":8002,"stimulator":8003,"otrophin":8004,"Ġyy":8005,"Ġhar":8006,"centrosome":8007,"667":8008,"isoleucyl":8009,"tnfr":8010,"pts":8011,"Ġvirulence":8012,"Ġpigmentosa":8013,"grpe":8014,"Ġnrdp":8015,"Ġrudimentary":8016,"Ġgonadotropin":8017,"oligosaccharyltransferase":8018,"crotonoyl":8019,"550":8020,"brac":8021,"dach":8022,"Ġem":8023,"Ġcr":8024,"Ġgi":8025,"islet":8026,"stomatin":8027,"phosphodeoxyribo":8028,"acylating":8029,"calcin":8030,"Ġprobable":8031,"verin":8032,"222":8033,"iring":8034,"dehydratase":8035,"Ġaminohydrolase":8036,"clk":8037,"Ġmetallothionein":8038,"fibulin":8039,"glycosyltransferases":8040,"Ġornithine":8041,"Ġglucuron":8042,"centrin":8043,"Ġmalate":8044,"propanoyl":8045,"formylglutathione":8046,"pyridox":8047,"Ġautoantigenic":8048,"tomedin":8049,"Ġsuccinyl":8050,"luciferase":8051,"flammatory":8052,"olfactomedin":8053,"phosphodeoxyriboaldolase":8054,"360":8055,"dd":8056,"kip":8057,"vt":8058,"Ġkelch":8059,"roundabout":8060,"Ġshi":8061,"Ġclock":8062,"Ġdim":8063,"eryl":8064,"hos":8065,"channel":8066,"Ġht":8067,"thump":8068,"advanced":8069,"mage":8070,"Ġfingers":8071,"polyglutamine":8072,"Ġob":8073,"tidyl":8074,"thiolase":8075,"256":8076,"cdgsh":8077,"Ġ132":8078,"596":8079,"Ġstro":8080,"ufen":8081,"muts":8082,"plastocyanin":8083,"Ġtetramerisation":8084,"pepl":8085,"Ġstaufen":8086,"isochorismatase":8087,"309":8088,"318":8089,"avian":8090,"cst":8091,"lum":8092,"pse":8093,"Ġsv":8094,"rev":8095,"alo":8096,"spl":8097,"lay":8098,"Ġmind":8099,"Ġpop":8100,"Ġprion":8101,"ucal":8102,"Ġeh":8103,"Ġdebranching":8104,"Ġrh":8105,"activin":8106,"phorin":8107,"338":8108,"346":8109,"tonate":8110,"Ġhydropho":8111,"steroidogenic":8112,"prostate":8113,"Ġscavenger":8114,"adrenodoxin":8115,"Ġmetabotropic":8116,"oylated":8117,"cysteinylglycine":8118,"phosducin":8119,"Ġathanogene":8120,"ublecortin":8121,"324":8122,"det":8123,"enolase":8124,"haptoglobin":8125,"als":8126,"til":8127,"Ġflowering":8128,"ethy":8129,"deubiquitinating":8130,"diadenosine":8131,"malian":8132,"gcn":8133,"404":8134,"glyceroporin":8135,"hydroxypyruvate":8136,"337":8137,"acetylmuram":8138,"Ġtranscripts":8139,"577":8140,"deoxycytidylate":8141,"neurobeachin":8142,"761":8143,"Ġoligome":8144,"Ġmicrop":8145,"orotidine":8146,"Ġmodifying":8147,"gtf":8148,"Ġmeiotic":8149,"quaglyceroporin":8150,"ammodytin":8151,"Ġstromal":8152,"314":8153,"512":8154,"fha":8155,"matri":8156,"vc":8157,"Ġlon":8158,"processed":8159,"Ġcsol":8160,"ctex":8161,"neb":8162,"Ġbur":8163,"Ġhh":8164,"Ġnhe":8165,"Ġnumb":8166,"viroporin":8167,"abp":8168,"504":8169,"phosphoadenosine":8170,")-(":8171,"kinetic":8172,"medium":8173,"688":8174,"ported":8175,"Ġadenylyl":8176,"Ġcard":8177,"water":8178,"Ġerbb":8179,"azzin":8180,"phageal":8181,"radient":8182,"hydroxyacylglutathione":8183,"Ġsalv":8184,"tafazzin":8185,"Ġcarbonic":8186,"Ġmago":8187,"Ġfibronectin":8188,"Ġmatrin":8189,"Ġhexakisphosphate":8190,"docking":8191,"313":8192,"hnrnp":8193,"ies":8194,"neprilysin":8195,"okine":8196,"Ġskp":8197,"alog":8198,"transglutaminase":8199,"Ġgradient":8200,"thif":8201,"Ġantag":8202,"Ġdes":8203,"maternal":8204,"0900":8205,"mycin":8206,"methylbut":8207,"mitofilin":8208,"gial":8209,"299":8210,"stigial":8211,"378":8212,"388":8213,"Ġtriphosphohydrolase":8214,"geraniol":8215,"Ġinducing":8216,"axon":8217,"azonin":8218,"Ġrapamycin":8219,"rhamnosyltransferase":8220,"Ġswim":8221,"nigrosin":8222,"Ġbacteria":8223,"Ġbromodomain":8224,"centrating":8225,"Ġoligomerization":8226,"537":8227,"aip":8228,"fork":8229,"pri":8230,"put":8231,"ptero":8232,"Ġketoglutarate":8233,"sel":8234,"Ġscle":8235,"Ġccr":8236,"spanning":8237,"Ġ140":8238,"Ġ130":8239,"Ġbt":8240,"Ġbed":8241,"endro":8242,"desm":8243,"Ġeg":8244,"Ġsetd":8245,"ochitinase":8246,"ota":8247,"osensitive":8248,"odendro":8249,"Ġnucleotidyltransferase":8250,"Ġspliced":8251,"actinoporin":8252,"ferrochelatase":8253,"554":8254,"syne":8255,"lavata":8256,"neuroendocrine":8257,"Ġphot":8258,"melanocyte":8259,"Ġmethylmalonate":8260,"Ġmetabolism":8261,"adamts":8262,"battenin":8263,"burp":8264,"Ġcholin":8265,"ggering":8266,"Ġtrehalose":8267,"Ġsuccinyltransferase":8268,"holocy":8269,"remorin":8270,"requiring":8271,"527":8272,"dutp":8273,"son":8274,"taste":8275,"influenza":8276,"Ġfg":8277,"Ġ160":8278,"Ġman":8279,"Ġmitochondria":8280,"ame":8281,"peric":8282,"Ġbtg":8283,"coding":8284,"immediate":8285,"odin":8286,"aminom":8287,"polyhomeotic":8288,"264":8289,"241":8290,"carn":8291,"methylcrotonoyl":8292,"274":8293,"mitter":8294,"Ġendocytosis":8295,"598":8296,"599":8297,"phyco":8298,"Ġhap":8299,"heparin":8300,"ufm":8301,"Ġrio":8302,"bleomycin":8303,"used":8304,"cystathionase":8305,"cache":8306,"Ġlisterin":8307,"Ġfutsch":8308,"alool":8309,"513":8310,"adipo":8311,"ow":8312,"atosis":8313,"Ġstra":8314,"enoate":8315,"resistant":8316,"Ġdyn":8317,"Ġdgcr":8318,"unna":8319,"transmitter":8320,"conopeptide":8321,"ulokinase":8322,"Ġadip":8323,"Ġtrp":8324,"Ġinactive":8325,"Ġelic":8326,"lling":8327,"gluco":8328,"Ġprohormone":8329,"cartilage":8330,"283":8331,"Ġmyd":8332,"coplasmic":8333,"Ġcationic":8334,"monoterpene":8335,"mature":8336,"pcna":8337,"snrna":8338,"metaxin":8339,"Ġtet":8340,"Ġthymu":8341,"granulin":8342,"Ġtriplet":8343,"knox":8344,"Ġsphingomyelinase":8345,"pigment":8346,"antennal":8347,"pepsinogen":8348,"pteridine":8349,"caveolin":8350,"Ġallele":8351,"ucalcin":8352,"similarity":8353,"rozoite":8354,"Ġdense":8355,"anterior":8356,"Ġmrt":8357,"706":8358,"new":8359,"endopolygalacturonase":8360,"Ġdesm":8361,"larval":8362,"calnexin":8363,"hydroxytetrahydrobiopterin":8364,"ellin":8365,"Ġtranslational":8366,"081":8367,"357":8368,"332":8369,"Ġzona":8370,"580":8371,"bsd":8372,"guanylyl":8373,"Ġmechan":8374,"corpor":8375,"azine":8376,"Ġphosphoribosyl":8377,"fructokinase":8378,"gdt":8379,"Ġsamhd":8380,"Ġdiablo":8381,"Ġcssl":8382,"Ġvitellogenin":8383,"Ġhydrophobic":8384,"+)":8385,"525":8386,"534":8387,"gig":8388,"iroqu":8389,"rat":8390,"Ġets":8391,"sema":8392,"atu":8393,"Ġssrp":8394,"Ġcw":8395,"Ġrer":8396,"occlu":8397,"Ġkap":8398,"Ġbm":8399,"ulocyte":8400,"Ġtryp":8401,"Ġincorpor":8402,"iazole":8403,"opus":8404,"arily":8405,"acetyllactos":8406,"Ġlytic":8407,"10000":8408,"285":8409,"286":8410,"289":8411,"359":8412,"ithorax":8413,"lusin":8414,"556":8415,"588":8416,"ntf":8417,"acetylglucosamin":8418,"perforin":8419,"Ġmodule":8420,"Ġorganizing":8421,"apobec":8422,"glia":8423,"Ġdipeptidyl":8424,"karos":8425,"papain":8426,"aromatase":8427,"dicarboxylate":8428,"Ġaspartate":8429,"generation":8430,"Ġfasl":8431,"bacterial":8432,"cephaly":8433,"zeaxanthin":8434,"diaphanous":8435,"Ġdeformylase":8436,"Ġincorporator":8437,"ero":8438,"jh":8439,"mif":8440,"partner":8441,"rnf":8442,"Ġproteiny":8443,"Ġsb":8444,"edia":8445,"anex":8446,"Ġreassembly":8447,"amiloride":8448,"ribophorin":8449,"adh":8450,"Ġltv":8451,"biotic":8452,"602":8453,"Ġexocytosis":8454,"Ġlympho":8455,"287":8456,"353":8457,"Ġadhesive":8458,"hexose":8459,"Ġzo":8460,"pecanex":8461,"sect":8462,"ganese":8463,"Ġharvesting":8464,"complementary":8465,"enoylcysteine":8466,"mapk":8467,"Ġtransducin":8468,"Ġglobal":8469,"vasa":8470,"Ġhybrid":8471,"Ġretrotransposon":8472,"circadian":8473,"Ġmakorin":8474,"Ġdeterminer":8475,"Ġttll":8476,"isoprenyl":8477,"iroquois":8478,"616":8479,"csp":8480,"erate":8481,"hic":8482,"milk":8483,"plakophilin":8484,"yip":8485,"Ġnan":8486,"Ġubiquinol":8487,"tea":8488,"Ġ111":8489,"Ġ123":8490,"anp":8491,"Ġ214":8492,"Ġgalact":8493,"stric":8494,"Ġlen":8495,"bilin":8496,"Ġnucleoti":8497,"lateral":8498,"Ġlysin":8499,"glycerone":8500,"273":8501,"358":8502,"349":8503,"dys":8504,"erythrocytic":8505,"rpin":8506,"Ġye":8507,"Ġ161":8508,"Ġformin":8509,"cpr":8510,"Ġrpf":8511,"Ġrhodopsin":8512,"Ġclk":8513,"branch":8514,"diphosphodolichol":8515,"Ġguanyl":8516,"crustin":8517,"nmra":8518,"Ġtfii":8519,"cupin":8520,"fragile":8521,"Ġamidinotransferase":8522,"Ġsclerosis":8523,"holocytochrome":8524,"cachectin":8525,"adipokinetic":8526,"unnamed":8527,"acetylglucosaminephosphotransferase":8528,"tfi":8529,"ramp":8530,"Ġsin":8531,"Ġsac":8532,"omedin":8533,"Ġmsh":8534,"Ġpds":8535,"concentrating":8536,"ulmon":8537,"thine":8538,"idea":8539,"calumenin":8540,"263":8541,"rolog":8542,"ricidal":8543,"Ġ131":8544,"npc":8545,"astin":8546,"oxoisoval":8547,"embryo":8548,"corazonin":8549,"Ġphosphoribohydrolase":8550,"Ġprenyl":8551,"Ġphosphatidylserine":8552,"paxillin":8553,"gaga":8554,"acylamino":8555,"Ġvegetative":8556,"utionarily":8557,"Ġgustatory":8558,"nigro":8559,"Ġmixed":8560,"Ġdicarboxylate":8561,"odendrocyte":8562,"Ġphotolyase":8563,"occludin":8564,"ulmonary":8565,"oxoisovalerate":8566,"539":8567,"kle":8568,"mdm":8569,"nd":8570,"nodulin":8571,"wox":8572,"with":8573,"wnt":8574,"Ġric":8575,"Ġsat":8576,"lax":8577,"Ġ114":8578,"Ġpsf":8579,"Ġpseudouridylate":8580,"amidine":8581,"708":8582,"cond":8583,"Ġgga":8584,"diol":8585,"diph":8586,"Ġntp":8587,"stant":8588,"Ġvb":8589,"arid":8590,"Ġdirected":8591,"phb":8592,"mouse":8593,"thioesterase":8594,"Ġphosphotyrosine":8595,"345":8596,"443":8597,"367":8598,"Ġlocalization":8599,"576":8600,"geranyltransferase":8601,"glucuronidase":8602,"cyclophilin":8603,"Ġperidinin":8604,"dominal":8605,"evolutionarily":8606,"pantothenoylcysteine":8607,"Ġbreakpoint":8608,"myocilin":8609,"Ġlength":8610,"diphthine":8611,"'(":8612,"aquaglyceroporin":8613,"ccl":8614,"los":8615,"psa":8616,"plastin":8617,"pmei":8618,"sz":8619,"scy":8620,"vd":8621,"vent":8622,"edback":8623,"Ġpole":8624,"Ġgh":8625,"Ġgast":8626,"isa":8627,"que":8628,"ubiquitinase":8629,"ifi":8630,"ities":8631,"hydroxybutyrate":8632,"ferment":8633,"Ġ141":8634,"389":8635,"vpg":8636,"neuroglobin":8637,"isoaspartyl":8638,"glycogenin":8639,"uminum":8640,"Ġstimulated":8641,"Ġfeedback":8642,"Ġthrough":8643,"arabinofuranosidase":8644,"Ġndufaf":8645,"Ġoverexpressed":8646,"matrilin":8647,"320":8648,"311":8649,"bbf":8650,"latase":8651,"nl":8652,"nib":8653,"qa":8654,"Ġsuccinate":8655,"had":8656,"lid":8657,"ancy":8658,"701":8659,"Ġkat":8660,"ark":8661,"Ġapyr":8662,"Ġinhibiting":8663,"ormancy":8664,"Ġeso":8665,"Ġnse":8666,"chimaerin":8667,"hspc":8668,"hipp":8669,"Ġconstant":8670,"silen":8671,"ipin":8672,"Ġexit":8673,"Ġxp":8674,"toj":8675,"041":8676,"282":8677,"336":8678,"Ġmyelin":8679,"sensing":8680,"Ġspecies":8681,"pothetical":8682,"phyrin":8683,"Ġperoxy":8684,"lineage":8685,"sylated":8686,"cue":8687,"Ġapical":8688,"prenyltransferase":8689,"axis":8690,"nown":8691,"tocin":8692,"udt":8693,"osteonectin":8694,"glycanase":8695,"formylglycin":8696,"osylated":8697,"targeting":8698,"motile":8699,"glycerophosphocholine":8700,"Ġzeste":8701,"bactericidal":8702,"cephalic":8703,"folylpolyglutamate":8704,"Ġapyrase":8705,"formylglycinamidine":8706,"bw":8707,"bund":8708,"bithorax":8709,"fcg":8710,"hnf":8711,"mst":8712,"shc":8713,"sequence":8714,"Ġcru":8715,"Ġdj":8716,"Ġ128":8717,"nak":8718,"Ġpic":8719,"arh":8720,"heath":8721,"dec":8722,"Ġnitrogenase":8723,"opon":8724,"Ġneighbor":8725,"hipothetical":8726,"lical":8727,"linalool":8728,"Ġcytotoxin":8729,"Ġhelical":8730,"406":8731,"ralog":8732,"Ġdiacylglycerol":8733,"Ġproprotein":8734,"246":8735,"396":8736,"pyridine":8737,"254":8738,"cdd":8739,"doublecortin":8740,"296":8741,"447":8742,"flz":8743,"790":8744,"Ġspermat":8745,"endoperoxide":8746,"Ġguanyltransferase":8747,"immune":8748,"Ġsnor":8749,"Ġmodulatory":8750,"Ġbrawh":8751,"pdgf":8752,"adenylylsulfate":8753,"generating":8754,"Ġnkx":8755,"skipped":8756,"Ġharbi":8757,"Ġshikimate":8758,"Ġtryptophan":8759,"fermenting":8760,"tojanin":8761,"515":8762,"ive":8763,"psin":8764,"posis":8765,"smooth":8766,"shell":8767,"white":8768,"atg":8769,"reducing":8770,"Ġfc":8771,"nam":8772,"702":8773,"pex":8774,"Ġ220":8775,"ssc":8776,"Ġinflammatory":8777,"diaz":8778,"preli":8779,"Ġldl":8780,"otu":8781,"interac":8782,"hydroxyglutarate":8783,"689":8784,"347":8785,"aspar":8786,"poli":8787,"386":8788,"366":8789,"bow":8790,"sulfurylase":8791,"hepatic":8792,"chori":8793,"obg":8794,"melanin":8795,"Ġwater":8796,"dissociation":8797,"Ġchelatase":8798,"phosphoribosylformylglycinamidine":8799,"ultrabithorax":8800,"berine":8801,"Ġocbbf":8802,"Ġadrenoreceptor":8803,"gastric":8804,"Ġglycerol":8805,"Ġprogestin":8806,"Ġroadblock":8807,"acetylmuramidase":8808,"isoprenylcysteine":8809,"silencing":8810,"326":8811,"derm":8812,"egl":8813,"hu":8814,"krab":8815,"prion":8816,"pogo":8817,"xa":8818,"seg":8819,"orphyrin":8820,"Ġstri":8821,"sper":8822,"Ġ121":8823,"hemic":8824,"Ġpuf":8825,"Ġgrp":8826,"Ġash":8827,"mek":8828,"ethyltransferase":8829,"603":8830,"402":8831,"Ġspi":8832,"232":8833,"mpv":8834,"ulfokine":8835,"Ġcoag":8836,"1000":8837,"243":8838,"ortho":8839,"letm":8840,"385":8841,"monocyte":8842,"formation":8843,"limation":8844,"akt":8845,"urease":8846,"heptonate":8847,"sfrs":8848,"orylated":8849,"Ġencoding":8850,"recti":8851,"Ġparalog":8852,"lakoid":8853,"Ġtriple":8854,"Ġdoublesex":8855,"marvel":8856,"Ġheparan":8857,"Ġprmt":8858,"Ġangiogenesis":8859,"citr":8860,"morsin":8861,"osulfate":8862,"Ġgelatinase":8863,"Ġresident":8864,"phytosulfokine":8865,"Ġmicroplusin":8866,"Ġyeast":8867,"rological":8868,"Ġperoxygenase":8869,"329":8870,"422":8871,"514":8872,"gold":8873,"soss":8874,"yrin":8875,"Ġsurfactant":8876,"Ġfan":8877,"Ġfemale":8878,"Ġ115":8879,"Ġmin":8880,"Ġmta":8881,"Ġmax":8882,"ocia":8883,"arcoma":8884,"Ġ205":8885,"oxanthin":8886,"determin":8887,"Ġnubp":8888,"ias":8889,"Ġexportin":8890,"ogenous":8891,"kinectin":8892,"356":8893,"dohydrolase":8894,"371":8895,"Ġdisco":8896,"587":8897,"Ġabh":8898,"Ġabca":8899,"syntrophin":8900,"Ġ185":8901,"Ġhydroperoxide":8902,"deoxyuridine":8903,"deoxyheptonate":8904,"dishevelled":8905,"Ġtrach":8906,"berry":8907,"granulocyte":8908,"oxidized":8909,"warfarin":8910,"Ġcholinephosphotransferase":8911,"516":8912,"bus":8913,"cut":8914,"fish":8915,"mep":8916,"nog":8917,"psp":8918,"rulation":8919,"Ġraf":8920,"orpha":8921,"Ġsheath":8922,"engulfment":8923,"Ġctong":8924,"ranged":8925,"Ġred":8926,"705":8927,"arranged":8928,"Ġ200":8929,"Ġbic":8930,"Ġgag":8931,"Ġtc":8932,"Ġino":8933,"apical":8934,"ophos":8935,"adhesin":8936,"malonic":8937,"ury":8938,"acylphosphatase":8939,"rudin":8940,"344":8941,"348":8942,"ortactin":8943,"trimethyltransferase":8944,"448":8945,"Ġ173":8946,"fibril":8947,"Ġspecificities":8948,"neurotoxin":8949,"762":8950,"nkg":8951,"reticulocalbin":8952,"svmp":8953,"Ġhistidyl":8954,"Ġbramy":8955,"retrotransposon":8956,"hydroxyisobutyrate":8957,"Ġswitch":8958,"Ġgypsy":8959,"Ġburst":8960,"phycoerythrin":8961,"Ġdesmolase":8962,"Ġnucleotidohydrolase":8963,"opontin":8964,"hemicentin":8965,"ophosmin":8966,"clavata":8967,"grain":8968,"mort":8969,"sprouty":8970,"zer":8971,"seipin":8972,"resc":8973,"Ġfos":8974,"Ġdcc":8975,"lization":8976,"lambda":8977,"utin":8978,"heart":8979,"anus":8980,"Ġbag":8981,"Ġegg":8982,"aptin":8983,"Ġluc":8984,"Ġantifreeze":8985,"nucleophosmin":8986,"601":8987,"site":8988,"zyg":8989,"ulline":8990,"aminotransferase":8991,"hydroxyprostaglandin":8992,"extensin":8993,"regulation":8994,"ferent":8995,"tonemal":8996,"trdc":8997,"tricarboxylate":8998,"384":8999,"achrome":9000,"microfibrillar":9001,"Ġglutaredoxin":9002,"smd":9003,"013000":9004,"Ġhalo":9005,"urotensin":9006,"pie":9007,"peritrophin":9008,"Ġdifferent":9009,"oxalate":9010,"Ġscf":9011,"inhibitory":9012,"weight":9013,"Ġreduced":9014,"vasion":9015,"Ġtemp":9016,"epididymal":9017,"ultraspi":9018,"mannanase":9019,"rought":9020,"togyrin":9021,"Ġcalpain":9022,"queuosine":9023,"aminoadipate":9024,"Ġgyf":9025,"putresc":9026,"Ġgalactosyltransferase":9027,"Ġcoagulation":9028,"citrulline":9029,"putrescine":9030,"519":9031,"bom":9032,"cosine":9033,"horylase":9034,"hbs":9035,"nos":9036,"pseudo":9037,"talin":9038,"yer":9039,"Ġet":9040,"Ġtetr":9041,"Ġhypoxia":9042,"Ġson":9043,"Ġfb":9044,"Ġpen":9045,"Ġprr":9046,"Ġiq":9047,"Ġ230":9048,"Ġ207":9049,"Ġguf":9050,"Ġak":9051,"ces":9052,"Ġelf":9053,"stos":9054,"serrate":9055,"acetase":9056,"Ġconstans":9057,"iporter":9058,"Ġxrcc":9059,"polyphosphate":9060,"thiopen":9061,"395":9062,"methylosome":9063,"methylthiopen":9064,"251":9065,"mbd":9066,"shund":9067,"ensis":9068,"amphi":9069,"597":9070,"fibrin":9071,"Ġabnormal":9072,"Ġphosphor":9073,"ketoacid":9074,"zoo":9075,"Ġrpac":9076,"665":9077,"lrrnt":9078,"parvin":9079,"Ġmale":9080,"izure":9081,"snares":9082,"acetoacetase":9083,"luciferin":9084,"mesencephalic":9085,"tnfrsf":9086,"methylthiopentene":9087,"369":9088,"613":9089,"cab":9090,"crp":9091,"dg":9092,"eef":9093,"gab":9094,"opressin":9095,"tal":9096,"rans":9097,"Ġisac":9098,"ograft":9099,"Ġnp":9100,"tochlorop":9101,"Ġhes":9102,"Ġheart":9103,"myome":9104,"Ġxaa":9105,"caud":9106,"ferric":9107,"trk":9108,"scr":9109,"Ġacetylesterase":9110,"584":9111,"Ġstat":9112,"allograft":9113,"astrin":9114,"dopachrome":9115,"synaptonemal":9116,"rgs":9117,"anamorsin":9118,"dilator":9119,"aminobutyrate":9120,"berberine":9121,"brass":9122,"Ġgliadin":9123,"gamet":9124,"fumarylacetoacetase":9125,"developmentally":9126,"Ġpxut":9127,"tochlorophyllide":9128,"523":9129,"536":9130,"natriuretic":9131,"sine":9132,"inn":9133,"tele":9134,"ref":9135,"Ġdnase":9136,"ernin":9137,"ulus":9138,"Ġga":9139,"cot":9140,"Ġtsr":9141,"emap":9142,"Ġ((":9143,"ticulate":9144,"sortilin":9145,"nucleolin":9146,"otiana":9147,"tob":9148,"phosphorylated":9149,"polycis":9150,"2200":9151,"042":9152,"Ġuter":9153,"0650":9154,"354":9155,"Ġphosphoenolpyruvate":9156,"Ġzim":9157,"Ġmyc":9158,"374":9159,"polarization":9160,"ridge":9161,"color":9162,"aux":9163,"574":9164,"smg":9165,"Ġ184":9166,"464":9167,"disabled":9168,"cytoskeleton":9169,"salic":9170,"Ġfibulin":9171,"Ġfibrosis":9172,"Ġcaro":9173,"teneurin":9174,"Ġcarboxylesterase":9175,"sarcoplasmic":9176,"piggybac":9177,"Ġperipheral":9178,"Ġhyperglycemic":9179,"igned":9180,"pyridoxine":9181,"peplomer":9182,"poliovirus":9183,"ultraspiracle":9184,"caudal":9185,"-,":9186,"609":9187,"cwf":9188,"ea":9189,"full":9190,"lmo":9191,"nep":9192,"nine":9193,"ncr":9194,"olectin":9195,"puro":9196,"sag":9197,"wp":9198,"Ġ02":9199,"Ġoct":9200,"haem":9201,"rebp":9202,"Ġfgf":9203,"spig":9204,"ito":9205,"lex":9206,"Ġkaryopherin":9207,"oxonase":9208,"Ġbridge":9209,"hosphorylase":9210,"uloyl":9211,"coum":9212,"Ġtssc":9213,"Ġdehydro":9214,"Ġdeubiquitinase":9215,"meli":9216,"ecto":9217,"rophorin":9218,"maltase":9219,"1300":9220,"tak":9221,"Ġoec":9222,"thiosulfate":9223,"Ġ107":9224,"397":9225,"399":9226,"Ġaldo":9227,"nfu":9228,"richo":9229,"rhoptry":9230,"Ġdishevelled":9231,"563":9232,"rogenate":9233,"cypia":9234,"Ġsyf":9235,"particulate":9236,"Ġubx":9237,"surf":9238,"somatomedin":9239,"hepatoma":9240,"Ġsui":9241,"ofusin":9242,"drebrin":9243,"Ġnudc":9244,"osynthase":9245,"glucosylceramidase":9246,"Ġtransphosphorylase":9247,"Ġryanodine":9248,"615":9249,"pcdh":9250,"sos":9251,"vasp":9252,"Ġtor":9253,"Ġit":9254,"teroid":9255,"ronectin":9256,"proteinous":9257,"ristem":9258,"Ġcosynthase":9259,"alyl":9260,"Ġficolin":9261,"ermin":9262,"lerian":9263,"Ġmpp":9264,"Ġps":9265,"pellin":9266,"hyury":9267,"ulp":9268,"Ġtps":9269,"isoform":9270,"cytoglobin":9271,"Ġpolyposis":9272,"imb":9273,"omelan":9274,"abdominal":9275,"1200":9276,"oxytocin":9277,"mps":9278,"phin":9279,"version":9280,"221":9281,"Ġ105":9282,"052":9283,"684":9284,"dymec":9285,"redox":9286,"376":9287,"594":9288,"Ġribonucleoproteins":9289,"Ġabcg":9290,"474":9291,"trinucleotide":9292,"orotate":9293,"heterotrimeric":9294,"apolipophorin":9295,"Ġamplified":9296,"periplasmic":9297,"cinnamoyltransferase":9298,"runx":9299,"opiomelan":9300,"Ġlateral":9301,"Ġsphingomyelin":9302,"Ġgeranylgeranyl":9303,"Ġacclimation":9304,"aqp":9305,"ditrans":9306,"Ġseptin":9307,"vimentin":9308,"Ġsalvage":9309,"Ġantagonist":9310,"Ġtemperature":9311,"dymeclin":9312,"opiomelanocortin":9313,"cross":9314,"gida":9315,"mynd":9316,"pulmonary":9317,"rhd":9318,"sno":9319,"ulis":9320,"Ġ0":9321,"Ġhydrogenase":9322,"orb":9323,"Ġsho":9324,"Ġci":9325,"alded":9326,"limb":9327,"liberin":9328,"Ġbicarbonate":9329,"Ġhu":9330,"Ġtha":9331,"Ġtpa":9332,"merozoite":9333,"assigned":9334,"uring":9335,"Ġtransporters":9336,"Ġrq":9337,"1500":9338,"Ġdihydroxy":9339,"0331":9340,"atriop":9341,"feruloyl":9342,"mullerian":9343,"macrene":9344,"unctop":9345,"293":9346,"Ġsignalling":9347,"Ġstar":9348,"Ġixoderin":9349,"fibroin":9350,"synaptogyrin":9351,"zipper":9352,"Ġcold":9353,"subst":9354,"Ġnavig":9355,"snail":9356,"Ġmonolaris":9357,"igmv":9358,"Ġuniporter":9359,"Ġunassigned":9360,"Ġmethylthiotransferase":9361,"oxidation":9362,"swim":9363,"farnesyldiphosphate":9364,"nipsnap":9365,"psii":9366,"Ġbacterial":9367,"Ġpalate":9368,"dachshund":9369,"aldedh":9370,"unctophilin":9371,"Ġnavigator":9372,"arogenate":9373,"dcp":9374,"hw":9375,"porin":9376,"pmr":9377,"telin":9378,"aci":9379,"allo":9380,"utosomal":9381,"Ġpno":9382,"704":9383,"709":9384,"thorax":9385,"through":9386,"hydrocarbon":9387,"Ġtp":9388,"Ġtar":9389,"diab":9390,"Ġantho":9391,"cec":9392,"Ġdeadenylation":9393,"Ġsero":9394,"Ġaconitate":9395,"Ġhoming":9396,"sinol":9397,"Ġcyst":9398,"Ġrub":9399,"todi":9400,"Ġpeptides":9401,"exten":9402,"pressing":9403,"xylosidase":9404,"786":9405,"rbl":9406,"ramine":9407,"centromeric":9408,"nicotiana":9409,"Ġinduction":9410,"sdr":9411,"Ġpreprohormone":9412,"melanopsin":9413,"uftelin":9414,"Ġmarker":9415,"kiss":9416,"Ġzzz":9417,"gastrin":9418,"Ġcombs":9419,"winged":9420,"Ġsialo":9421,"mortality":9422,"spiggin":9423,"melibiase":9424,"Ġrqcd":9425,"dros":9426,"eve":9427,"fet":9428,"grp":9429,"hdc":9430,"pid":9431,"sco":9432,"uric":9433,"sestrin":9434,"Ġcep":9435,"Ġfip":9436,"spar":9437,"Ġpalmit":9438,"703":9439,"osc":9440,"connector":9441,"Ġazoo":9442,"Ġinvasion":9443,"Ġnos":9444,"imid":9445,"incinn":9446,"arian":9447,"501":9448,"401":9449,"adenomat":9450,"392":9451,"394":9452,"methylthioadenosine":9453,"2800":9454,"275":9455,"mbt":9456,"tbx":9457,"292":9458,"dykinin":9459,"trihelix":9460,"cln":9461,"477":9462,"466":9463,"helium":9464,"Ġ192":9465,"prenyl":9466,"fructan":9467,"glucanotransferase":9468,"spermia":9469,"777":9470,"ductone":9471,"matrin":9472,"Ġbrhip":9473,"10426":9474,"Ġoculis":9475,"Ġbranched":9476,"thioester":9477,"Ġtret":9478,"vasodilator":9479,"ntpase":9480,"twinfilin":9481,"Ġbasal":9482,"dorsal":9483,"Ġesophageal":9484,"noggin":9485,"Ġuteru":9486,"Ġazoospermia":9487,"incinnata":9488,"315":9489,"319":9490,"ape":9491,"dke":9492,"nose":9493,"saga":9494,"zle":9495,"promoter":9496,"Ġsuc":9497,"Ġsprouty":9498,"tia":9499,"ers":9500,"Ġpak":9501,"pesca":9502,"Ġkish":9503,"olfr":9504,"isg":9505,"apc":9506,"aph":9507,"Ġlap":9508,"orexin":9509,"Ġiiic":9510,"Ġcytotoxic":9511,"avr":9512,"Ġnucleus":9513,"onucleotide":9514,"272":9515,"080":9516,"294":9517,"Ġload":9518,"scan":9519,"scute":9520,"387":9521,"479":9522,"xylosyltransferase":9523,"Ġimap":9524,"666":9525,"nicastrin":9526,"nrk":9527,"Ġmeis":9528,"fintrim":9529,"osteo":9530,"dmx":9531,"arsenical":9532,"latrophilin":9533,"motilin":9534,"Ġerythroblast":9535,"Ġtetramerization":9536,"ireductone":9537,"protoporphyrin":9538,"Ġdepolymerizing":9539,"homogentisicase":9540,"deformylating":9541,"synaptophysin":9542,"Ġfucosyltransferase":9543,"frigida":9544,"pericent":9545,"aminomethyltransferase":9546,"cecropin":9547,"Ġsialophosphoprotein":9548,"Ġpalmitoylated":9549,"dkeyp":9550,"pescadillo":9551,"317":9552,"612":9553,"614":9554,"bloc":9555,"cincinnata":9556,"jn":9557,"pterin":9558,"tat":9559,"vq":9560,"ym":9561,"zh":9562,"inp":9563,"seizure":9564,"Ġsch":9565,"Ġcml":9566,"Ġdpy":9567,"utomerase":9568,"Ġmt":9569,"ostin":9570,"etine":9571,"oxetine":9572,"Ġgef":9573,"thion":9574,"Ġara":9575,"chh":9576,"tyramine":9577,"Ġvd":9578,"bip":9579,"abcc":9580,"estive":9581,"1600":9582,"itive":9583,"inosteroid":9584,"552":9585,"metallophosphoesterase":9586,"germacrene":9587,"Ġapart":9588,"perme":9589,"Ġoligopeptidase":9590,"heterochromatin":9591,"Ġroot":9592,"Ġfluoxetine":9593,"onadhesin":9594,"Ġenriched":9595,"thyroglobulin":9596,"Ġalternatively":9597,"kappab":9598,"elicitin":9599,"haete":9600,"rectifying":9601,"))":9602,")(+)]":9603,"0100":9604,"bos":9605,"dormancy":9606,"jumonji":9607,"nsl":9608,"soc":9609,"sia":9610,"yy":9611,"ymin":9612,"tered":9613,"robetaine":9614,"Ġsde":9615,"rice":9616,"Ġcav":9617,"acin":9618,"Ġrespond":9619,"Ġmn":9620,"Ġmec":9621,"Ġmaturase":9622,"Ġmel":9623,"Ġpin":9624,"Ġped":9625,"Ġpcf":9626,"ams":9627,"Ġiota":9628,"Ġgle":9629,"isition":9630,"diuretic":9631,"ependymin":9632,"Ġelectron":9633,"quisition":9634,"lobi":9635,"Ġacquisition":9636,"adthrough":9637,"ropo":9638,"acylcarnitine":9639,"tosyl":9640,"moothelin":9641,"dpy":9642,"ferring":9643,"255":9644,"triokinase":9645,"scmyb":9646,"494":9647,"mannoside":9648,"363":9649,"dihydrodipicolinate":9650,"Ġeps":9651,"ellar":9652,"454":9653,"mix":9654,"disrup":9655,"hepa":9656,"Ġanchoring":9657,"osteri":9658,"srsf":9659,"Ġsalt":9660,"Ġhmces":9661,"Ġotu":9662,"penicillin":9663,"glucoamylase":9664,"bundling":9665,"extended":9666,"413":9667,"524":9668,"734":9669,"fggy":9670,"pms":9671,"Ġatic":9672,"ining":9673,"roflexin":9674,"Ġsiz":9675,"harpin":9676,"res":9677,"omed":9678,"Ġfmn":9679,"Ġmw":9680,"Ġkc":9681,"coded":9682,"Ġtweet":9683,"Ġisocitrate":9684,"Ġtransition":9685,"ribokinase":9686,"masp":9687,"Ġaciduria":9688,"usc":9689,"Ġcytidine":9690,"Ġconjug":9691,"ralbp":9692,"1900":9693,"Ġov":9694,"intercellular":9695,"irus":9696,"351":9697,"252":9698,"lanosterol":9699,"sulfide":9700,"ringe":9701,"298":9702,"erythroid":9703,"metrical":9704,"transformation":9705,"oligodendrocyte":9706,"classical":9707,"Ġcolon":9708,"cyclodiphosphate":9709,"Ġnashi":9710,"Ġsupressor":9711,"mlh":9712,"Ġoctopamine":9713,"cdkn":9714,"acyanin":9715,"tacin":9716,"Ġnude":9717,"Ġfibrillarin":9718,"pleiotropic":9719,"matode":9720,"atuerin":9721,"fcgr":9722,"piezo":9723,"disrupted":9724,"omedullin":9725,"Ġtweety":9726,"518":9727,"617":9728,"fes":9729,"gland":9730,"lrp":9731,"lcp":9732,"lung":9733,"morn":9734,"nol":9735,"zu":9736,"inver":9737,"producing":9738,"rar":9739,"accessory":9740,"acireductone":9741,"hoblast":9742,"Ġ134":9743,"anc":9744,"ocirus":9745,"etin":9746,"Ġgerm":9747,"Ġhgh":9748,"isotocin":9749,"dapp":9750,"vip":9751,"esr":9752,"Ġxpd":9753,"gps":9754,"methylguanine":9755,"355":9756,"mitofusin":9757,"galactokinase":9758,"Ġbile":9759,"551":9760,"mago":9761,"ccip":9762,"saicar":9763,"neuroblastoma":9764,"synapse":9765,"copalyl":9766,"Ġtao":9767,"nodal":9768,"adrenomedullin":9769,"floral":9770,"propionase":9771,"homology":9772,"pept":9773,"myxocirus":9774,"phosphoribosylaminoimidazolecarboxamide":9775,"Ġheterogeneous":9776,"pppde":9777,"sequestrin":9778,"Ġepithelium":9779,"cholinergic":9780,"Ġmechanosensitive":9781,"interactor":9782,"Ġdihydroxyacetone":9783,"Ġresponder":9784,"..":9785,"dla":9786,"dentin":9787,"gid":9788,"gdi":9789,"hrf":9790,"karyopherin":9791,"madd":9792,"pbx":9793,"vit":9794,"Ġsi":9795,"Ġfab":9796,"Ġdreb":9797,"ergi":9798,"une":9799,"ranatuerin":9800,"spla":9801,"vegf":9802,"pey":9803,"Ġ215":9804,"Ġgid":9805,"Ġtbk":9806,"Ġintra":9807,"decap":9808,"dipeptidase":9809,"Ġsemaphorin":9810,"astic":9811,"lipoate":9812,"Ġrxr":9813,"Ġdivalent":9814,"calsequestrin":9815,"vertebrate":9816,"tuberin":9817,"271":9818,"glucosaminyltransferase":9819,"253":9820,"Ġzf":9821,"dye":9822,"erythrocru":9823,"clp":9824,"Ġjun":9825,"3800":9826,"omaltase":9827,"Ġstalk":9828,"475":9829,"5300":9830,"metallopeptidase":9831,"787":9832,"virulence":9833,"hept":9834,"775":9835,"corrin":9836,"lysophosphatidylserine":9837,"Ġphoto":9838,"paraoxonase":9839,"Ġknotted":9840,"takeout":9841,"temperature":9842,"acetoacetyl":9843,"Ġvasotocin":9844,"Ġdimethyl":9845,"uricase":9846,"erythrocruorin":9847,"'),":9848,"546":9849,"clin":9850,"io":9851,"kx":9852,"over":9853,"rpa":9854,"sty":9855,"wberry":9856,"zim":9857,"Ġripening":9858,"invertase":9859,"prolycopene":9860,"ricin":9861,"acaspase":9862,"heria":9863,"Ġreadthrough":9864,"Ġbrg":9865,"Ġhip":9866,"Ġtnp":9867,"chch":9868,"transpeptidase":9869,"ropsin":9870,"Ġrgd":9871,"tpx":9872,"Ġexosomal":9873,"1800":9874,"2300":9875,"Ġcohesin":9876,"inosinic":9877,"urain":9878,"lanto":9879,"erythropo":9880,"Ġloop":9881,"Ġdisc":9882,"otrophic":9883,"monom":9884,"cholinesterase":9885,"Ġ180":9886,"Ġacetylglucosaminyltransferase":9887,"periostin":9888,"Ġallorecognition":9889,"brd":9890,"Ġfebra":9891,"papilin":9892,"hermes":9893,"Ġcondensin":9894,"muconate":9895,"Ġsnake":9896,"dimethylargin":9897,"ssencephaly":9898,"brix":9899,"diphtheria":9900,"digestive":9901,"Ġcarbamoyl":9902,"Ġecdysteroid":9903,"driving":9904,"prickle":9905,"inosinicase":9906,"erythropoietin":9907,"312":9908,"bcdna":9909,"ikaros":9910,"krt":9911,"msp":9912,"ndh":9913,"rataxin":9914,"sul":9915,"wound":9916,"Ġolfactory":9917,"Ġtensin":9918,"Ġypt":9919,"repression":9920,"alba":9921,"Ġdd":9922,"osup":9923,"pexin":9924,"idarian":9925,"octopamine":9926,"Ġback":9927,"coilin":9928,"Ġaph":9929,"Ġisopenten":9930,"diamine":9931,"lota":9932,"Ġlayer":9933,"Ġlhx":9934,"Ġhect":9935,"Ġsplen":9936,"Ġrhe":9937,"calcy":9938,"trophoblast":9939,"php":9940,"irf":9941,"Ġatl":9942,"glucoside":9943,"sulfo":9944,"291":9945,"peptidylglycine":9946,"scl":9947,"585":9948,"Ġnmd":9949,"Ġabl":9950,"Ġphosphomutase":9951,"sui":9952,"452":9953,"prka":9954,"oxoacid":9955,"phosphoribosyltransferase":9956,"phosphoribulokinase":9957,"butyrobetaine":9958,"oglycoprotein":9959,"Ġcyclophilin":9960,"Ġtfiib":9961,"derma":9962,"prolinase":9963,"Ġsushi":9964,"nife":9965,"frataxin":9966,"leghemoglobin":9967,"Ġmtorc":9968,"gote":9969,"000000":9970,"threonylcarbamoyladenine":9971,"protection":9972,"fgfr":9973,"ominant":9974,"supervillin":9975,"dermat":9976,"orthodenticle":9977,"Ġdehydroascorbate":9978,"Ġserotonin":9979,"Ġconjugation":9980,"dappu":9981,"monomethy":9982,"dimethylargininase":9983,"330":9984,"janus":9985,"junctophilin":9986,"mms":9987,"mterf":9988,"noc":9989,"wall":9990,"zonadhesin":9991,"achaete":9992,"alternative":9993,"aluminum":9994,"Ġfp":9995,"ital":9996,"laurine":9997,"nabin":9998,"amet":9999}